[PAD]
[UNK]
[CLS]
[SEP]
[MASK]
!
"
#
$
%
&
'
(
)
*
+
,
-
.
/
0
1
2
3
4
5
6
7
8
9
:
;
=
?
@
[
\
]
^
_
`
a
b
c
d
e
f
g
h
i
j
k
l
m
n
o
p
q
r
s
t
u
v
w
x
y
z
{
|
}
~
¡
¤
¥
§
¨
«
¬
®
°
±
²
³
´
µ
·
¸
º
»
¼
½
×
ß
à
á
â
ã
ä
å
ç
è
é
ê
ë
í
ð
ñ
ò
ó
ô
õ
ö
ø
ù
ú
û
ü
þ
ā
ą
ć
č
ē
ė
ğ
ī
į
ķ
ł
ń
ņ
œ
ś
ş
š
ŧ
ū
ų
ź
ž
˚
̃
̈
̌
β
π
а
б
в
г
е
и
к
л
н
о
п
р
с
т
ф
ч
ъ
э
–
—
―
‘
’
‚
‛
“
”
„
†
•
…
‰
′
″
€
™
−
≈
■
##ä
##n
##u
##t
##h
##e
##k
##s
##a
##m
##o
##p
##i
##õ
##r
##d
##v
##j
##l
##g
##ü
##5
##0
##b
##w
##f
##ö
##6
##7
##1
##2
##c
##8
##z
##°
##y
##3
##9
##4
##ò
##x
##à
##š
##´
##ù
##€
##̈
##ç
##ž
##×
##q
##é
##™
##ã
##¬
##ā
##º
##ó
##н
##г
##е
##è
##̃
##л
##и
##ъ
##к
##а
##ŧ
##¨
##в
##с
##т
##ų
##¸
##ø
##ē
##þ
##ú
##ð
##²
##р
##č
##į
##ė
##á
##ô
##®
##ë
##ć
##ß
##̌
##í
##ķ
##œ
##˚
##ņ
##ś
##ł
##ź
##å
##б
##п
##ñ
##½
##о
##ч
##ğ
##ū
##û
##β
##³
##ê
##st
##se
##le
##al
##in
##id
##ma
##is
##el
##da
##ta
##ik
##te
##ud
##oo
ja
##ga
##us
##va
##ks
ka
on
##ee
ku
##aa
##im
##ja
te
##ise
##en
##ul
##it
##il
##use
##ist
ko
##na
##es
##ust
##gi
##ra
##ne
et
##est
va
võ
##la
##ii
##ur
ta
##nd
##si
##ge
##ut
ei
##as
##ine
sel
##ri
##gu
kui
ma
vä
##ea
ol
##ha
##me
##nud
tu
##ida
##ht
##vad
se
ole
##he
##är
##er
##ko
##mise
ju
su
##sta
saa
##ni
see
##de
sa
si
pa
la
ar
in
##ka
me
##uta
kõ
##lt
##ing
##öö
selle
##val
##ir
##sa
tä
mõ
oma
või
##ku
##ti
##tud
##ää
po
kas
##li
mis
##ide
siis
##lik
ra
##nda
##ime
pea
nä
##tu
##or
val
##ju
na
##ro
##em
##ba
##um
##ita
mu
kü
##nna
al
##et
min
##end
eest
li
kes
##alt
##ki
aga
tule
aa
##ts
mil
oli
to
lä
ning
##kse
##tsi
##iku
##üü
ha
pal
mida
koo
tee
##bi
tõ
sõ
##enda
kuid
nii
seda
##di
töö
suur
##ult
##mas
##les
kor
le
kä
##ke
##võ
pu
kir
väl
##lu
##inna
##mine
##usta
tea
pro
##äe
##mist
põ
##kt
loo
ne
##jal
##iks
##nne
##isa
##sed
##sti
##pe
ette
##uste
võim
üle
##pa
##re
aasta
##ol
##on
kõik
##ie
##ub
##ite
##hk
##ind
##vi
pole
ise
##ala
jär
ve
maa
soo
mit
as
##ika
inim
lõ
##eer
##oon
##rv
es
võimal
lu
##usi
##used
##ig
mille
##mm
##00
##ige
välja
##nn
er
sü
##ua
poo
##ste
koh
##jad
##maa
##takse
##du
##tte
##tse
##ina
üks
iga
kon
vast
##ile
üh
##ooni
##iselt
##inud
kasuta
põh
kus
jä
##ista
##ia
##mb
##pp
##kka
##ene
##kku
##iste
re
##selt
tege
##je
##uda
eesti
veel
##konna
tal
il
##uses
##itse
mä
kr
saab
too
vii
üt
võib
##ot
##rd
##ike
osa
enda
##ära
mul
taga
##mis
eel
mee
meie
nagu
##des
ro
##mat
kül
sis
tema
##itud
##valt
hea
jõ
sest
ke
and
##ende
kel
sell
##hul
pe
##nu
##tes
##ve
##mad
##ps
väga
##hel
tuleb
tul
##ude
juba
jää
##ised
##miseks
nõ
##dus
##jate
ettevõ
##un
nende
##idu
##gel
palju
mitte
##tas
vi
kol
oleks
##ru
ena
##päe
##iiv
ära
täna
##eed
hu
vaid
pra
##isi
##juta
##its
olla
##vat
##imise
vaa
uu
##lus
minu
##üüd
##ter
##eg
inime
##kk
elu
##mi
##iir
nad
liht
ain
##ral
##vita
ütles
teha
##esti
midagi
rah
hoo
ül
vee
kuidas
##usega
aja
ho
ala
vastu
ots
os
enam
##su
haa
olen
##maks
kõr
##ärast
##jand
##ng
vähe
##sel
tar
juur
##uti
tund
##üh
need
arv
kogu
kind
tur
ela
pär
##ikult
##ega
lisa
peale
##pu
lo
##vate
näite
hä
##ar
raha
##mast
suure
##henda
kelle
sellest
##ingu
##alu
inimest
mär
##usest
kokku
##elda
päe
kuul
neid
so
##uko
kesk
küs
##tab
rää
##gia
##tus
kin
##mal
##usel
läbi
vaja
juht
##las
nüüd
##hend
arva
haaps
lää
lähe
##sid
##ent
rohk
an
toim
par
ühe
kuna
kõige
lii
##tada
##elt
##mata
##misel
##oor
küll
pr
rohkem
kee
teen
##mp
siin
##unud
##ides
maail
kaas
eur
koos
korral
##egu
##iti
joo
##kti
##oks
muut
##hti
taha
olnud
kohta
linna
##taja
ikka
tead
kal
võt
ainult
näiteks
lääne
##kas
ene
ees
##ool
##usele
terv
20
ava
raa
##nt
##tsioon
kau
##matu
ajal
rii
##ini
erine
mõne
eks
##hu
kirjuta
##aar
##umi
eh
##eli
saada
19
eda
pü
##ele
vaba
##hi
aut
##stal
peaks
##laa
maks
##ble
olul
##to
tagasi
per
##malt
just
lap
200
seal
##kü
##useks
ri
us
##tele
jaoks
üld
is
##lo
pärast
##ule
ehk
##nul
vasta
##ed
##ilise
sil
kar
##vus
sin
järg
sea
poole
koha
var
pil
##ikud
##esta
##vas
##gus
##ndi
peab
hakka
õp
##mel
esi
##tsiooni
##oni
kul
##kir
ki
##dud
##inda
##gem
sam
##liku
kindla
##tel
##os
##an
täi
proble
enne
##raa
##ses
võimalik
anna
teise
##vä
##por
##uri
lihts
##hn
pi
ab
end
sul
##stee
haapsalu
hal
##ver
##usa
ettevõt
ti
##sin
har
mo
vahe
praegu
viima
##una
olid
liik
aastal
##gust
nime
põhj
##aal
##lust
##eri
##idi
isegi
mõtte
aval
ega
##po
vaim
soov
mina
meil
##eeri
proje
##ole
võiks
aega
hul
kiriku
##esi
##vaid
ilm
samuti
tunn
##set
luge
##päeva
lihtsalt
inimesed
##kond
jät
##ees
##rit
puud
##test
olema
##mala
tunne
küsim
män
tall
jõud
##esk
samas
##imine
juurde
##gra
õig
mill
seo
korda
kool
##met
oo
##maal
jumala
##res
sõnul
poolt
inf
käi
sai
ras
##alda
sõna
##gud
mulle
sama
meel
sisse
vana
olemas
##ksa
asja
mõt
taa
##itsi
alg
ümb
palj
un
tegel
müü
edasi
##ho
selles
miks
sinu
huvita
##eta
seis
##oloo
ing
kiir
õpe
##valits
sur
kaks
kah
##tega
##enud
para
esime
esim
no
saanud
hinna
probleem
het
##itus
leid
kahe
pii
##ila
koht
konk
valla
tähenda
##ikk
jooks
rõ
##tuse
teg
kindlasti
pan
eestis
##iline
##ltu
keegi
##rra
abi
##ikus
##hta
krist
krooni
vahel
andme
##nde
kaasa
##mär
majand
id
##kis
aita
tek
##nik
##mu
tallinna
##itu
inimene
inimese
jäl
ener
##nis
##igi
##jas
##pi
##ttu
tas
el
201
au
tulem
armast
##ril
##ori
10
##imist
mar
aeg
##ber
alati
maailma
kinni
##vast
hil
sellise
kodu
jut
##jon
pol
##ood
alla
selleks
##eet
all
õnne
väär
##ustada
euroo
##vaa
suht
##orm
##nni
järgi
##misega
##ktiiv
##seks
tuli
ming
kohal
##ali
tut
##konda
##duse
##ris
rak
##gas
ehita
##uvad
##misest
##ela
ilma
teine
pää
##be
küla
##tavad
##hte
##ilt
kuigi
##neb
päris
##mes
parem
sta
or
teiste
oluko
##hele
##utus
siiski
sellele
kur
püha
##jär
##luse
##ula
##ran
##gist
mees
##vale
peal
##idele
##dala
aastat
##ree
post
mitme
era
##og
riik
##stus
väik
tü
muidu
##liit
noor
lõpu
möö
tehn
uur
lin
hilj
vaata
selline
tuge
rist
##nes
##sest
##idest
##rol
##nnast
##ena
kooli
ase
##tis
##idega
lisaks
väike
hästi
mind
jääb
sise
üles
uue
ni
kaitse
blo
lahend
ker
ennast
arenda
##päeval
eriti
kli
##kord
##lis
##pro
oleme
teada
##likult
##ustas
kasva
##ooli
##imis
isa
pida
##sit
auto
kuni
komm
##gramm
teist
##ikku
õpp
##seid
##kus
lõp
juha
nim
##gal
laste
kultu
##uma
kohe
riigi
##leb
##laste
pakku
sii
##tav
korra
##kel
##htud
##tt
jooksul
endale
mur
15
kasutada
kõigi
##jaid
sellega
##rid
##teer
##nge
##enä
kont
leia
puhul
pee
valmis
##kesk
kogud
eesmär
##kül
ümber
##lid
##eni
##dega
aren
##dab
pun
mäng
saavad
st
##maid
##oodi
pool
euroopa
inimesi
päeva
läänemaa
energia
##pal
##isu
pla
õige
##kõ
luba
ettevõtte
rea
##eb
##aasi
asi
jaga
mingi
tegev
##dal
saaks
kõrge
roo
##rite
##endus
süda
hin
täht
loom
uus
suuda
inimeste
võtta
teie
##utse
kunagi
maja
##dust
##ulu
tegelikult
##eva
näita
kirik
##vu
##ria
##umine
annab
meile
soovi
##vest
##kirja
kuts
keer
vajal
kogem
oled
##tust
läheb
##oloogia
mi
##mus
konkur
fir
vaada
##ss
##tsa
##umis
proo
##iko
piir
toet
lehe
seega
teda
öelda
##vara
##male
lai
neile
##mo
##tava
##esse
näha
eba
##endi
mõned
majandus
pik
last
kuu
tähele
##tsiaal
tähendab
õnn
lapse
##nts
##mme
ru
kolm
##usid
aru
do
##rad
mõtle
##tatud
pöö
##vane
##mate
##umist
osale
piisa
##jale
##ilist
12
teema
üldse
siia
haka
pere
mängu
plaa
sp
jumal
##pis
juhul
raske
fa
##utada
tor
juures
de
##misele
##udu
kand
nel
##äära
##min
##tee
mõte
süstee
##isid
##meti
art
ühis
taot
kontrol
kuju
##kkas
##ndus
##jut
##useid
rõõ
tartu
võr
000
ele
vähem
pä
##pärast
kat
##stada
##ona
##stu
elus
##väär
är
##oog
vähemalt
suuna
##ch
vajad
arvesta
##mn
läks
head
koost
##dele
vane
klas
antud
18
vara
##iliselt
talle
hetkel
korralda
seotud
##tor
täp
paljud
mõist
tegemist
##ustele
mine
##aad
kun
##iseer
##konnas
tööta
##ad
teeb
##ingi
jah
he
kanna
meele
hakkas
projekti
##tiiv
leida
võit
##enta
tutv
##lased
millest
hiljem
natu
amet
##per
minna
paar
liiga
sead
##ib
ettevõte
lah
soovita
##isse
##vahel
maha
selgi
meid
sobi
##ikul
tööd
##ktor
sissel
alles
programm
lihtsa
tehtud
otse
##sse
##ustega
varem
sinna
##gan
üht
ülik
tähelepa
neil
lõpe
kahju
sisselog
hää
tel
lõpuks
raamatu
koostöö
##biil
kätte
usu
neist
mõni
##iga
muud
ver
##no
kaar
oska
##del
täis
tele
kuhu
panna
sisselogitud
##joni
##sioon
tasa
##jatele
##pära
##sus
taval
selge
sar
alga
##pool
##üstee
##mne
pare
rahul
kust
##med
##ustest
muidugi
tegutse
igal
jul
##kul
##igem
hel
viis
kolma
##nal
arma
vald
tõesti
pigem
loe
kõig
##uks
toot
paku
kao
sünd
miljon
eri
##hal
tekk
protse
##isas
##kraa
jal
##mma
##olu
tulev
##ituse
jne
##ire
umb
hoopis
##dan
keha
##sete
lõpp
sellist
11
##kut
poliit
##endada
##pea
osas
huvi
anda
##rda
haapsal
##gid
##ustab
tegele
ligi
##poo
nädala
esimene
ema
jäi
##gelt
##alist
taht
##io
##gis
##miselt
keda
##reer
lep
##sele
##olik
võivad
kord
##oone
mõel
##mista
mer
jälle
##imiseks
##sis
##uga
##likud
co
##mised
inter
punkti
õht
##lane
##etse
##onaal
##era
##last
tundub
##statud
##pordi
##kida
##rt
##stas
##loo
##esid
edu
natuke
meist
##fi
##vaks
teinud
võimalus
##tõ
praeg
##hv
isik
polnud
##kä
põl
sulle
määra
mõista
valg
paa
##ima
silma
hinda
##tan
##tanud
kirja
##vil
kaudu
##ikas
tõenä
söö
##idata
abil
lehekül
mas
järel
sarna
##üüs
rääkis
##oliko
mingit
mõõ
haig
##ten
rahva
öö
tegi
##hes
ak
ting
noo
pid
näe
artik
võist
kultuur
lisas
hakkab
vil
##tama
põhjal
##vel
##isel
rahvus
lihul
##jaks
muuda
tähelepanu
##kust
taas
esimese
##põ
loomul
hoia
tekita
räägi
hinge
lahti
##ümn
##jat
tõs
invest
tänu
##ustatud
##rii
##isin
##iseks
projekt
##teen
jees
ühte
##gin
##utu
saav
##ess
läh
sä
ee
mäle
püü
##dest
mängi
juh
sotsiaal
suut
##gil
ongi
umbes
16
##ümnaasi
##hed
hir
ost
tegu
käes
##misi
proov
kii
miljonit
##usse
toe
puha
lapsed
30
##pida
suurem
regist
jaan
##bra
mobiil
##asi
armasta
toeta
##bje
veebi
täiesti
küsimus
##ents
##mises
imel
väikse
interne
äär
##ress
rakend
igasu
maailmas
vir
##isest
las
##ksid
##ms
muus
äri
##kum
kolme
meeldi
olin
##ab
tr
toimub
hü
##aas
##ruk
õpetaja
hõ
##jõ
##juht
millega
mõle
veeb
ellu
täit
jõua
raamat
pis
##maja
kellel
vene
##usaa
##istada
õppe
info
jaa
fil
oluline
teki
teo
sind
läb
sal
##võt
palve
##jää
sealt
asjad
##jaa
nelja
võime
kõigile
13
ist
##utas
firma
##kad
##töö
mööda
keerul
net
pari
jäänud
taol
##pt
vär
piira
14
uud
tulnud
##like
peavad
hoone
##olikogu
kõike
ikkagi
17
kval
võrd
ad
esinda
##go
asju
lugeda
##kaitse
teised
reaal
omavalits
##peal
##mee
##udel
alusta
tõttu
##aasta
teisi
##dia
kõrval
välis
##tuur
komp
kommenta
##jest
terve
ap
tuleks
##utab
kulla
organ
toime
##ises
tulla
autor
##rist
##ili
##ssi
lihtne
##kki
anal
##eerida
päev
hool
len
##ustus
##ikat
fina
tasuta
mood
muu
avalda
elekt
tõenäol
kaht
kava
läinud
olukorra
uut
külasta
##idagi
toote
##ow
oh
pide
erinevate
##and
##arv
##etsi
##suse
##õp
mitu
lüh
##oori
ütle
vaadata
##idel
##ck
pane
luua
##udes
##imõ
laa
tegema
##itsioon
gümnaasi
vaik
##ktori
mõju
ilmselt
hing
lü
eile
mõn
piisavalt
##itust
##mete
saame
jo
kri
serv
##võim
##pla
##vam
puh
arengu
eral
ooda
##tule
##terjal
##saa
kuidagi
enese
ula
##vuse
##koha
alguses
telef
seisuko
##poole
25
##so
sega
võe
kirj
kõiki
##kuse
huvitav
paig
100
vist
##siooni
kinnis
##sust
vahend
loob
##dunud
harid
##lit
##utuse
pak
hoid
##vid
##vis
##gune
väärt
öel
ülesa
aitab
##fo
##ingute
vale
kauba
bus
##lasi
##hinna
sada
##at
##utud
##teri
käib
##minist
vorm
arusaa
199
väh
tingim
##masti
käsit
tihti
jätku
##nike
##seis
prakt
euro
loomulikult
asemel
lihula
usa
##istas
##meid
homm
##pane
võõ
olevat
##rk
##niku
##roo
##igus
tase
sain
püh
koguduse
ga
oluliselt
##men
##alis
##eliselt
said
ülla
wind
##entsi
saad
õpila
##und
süga
täpselt
##fe
käs
test
plan
hakata
rav
ent
sen
kell
raja
ast
ühel
idee
obje
##bel
teed
sisu
##osa
##stab
sees
tüh
valgust
järele
süü
##olla
##pidi
viimase
tüü
hoida
dokum
##pil
##iseid
tuua
muga
rõõm
window
##var
sellel
mõelda
paremini
õigus
kiiresti
kulu
##tuuri
politse
kinnisvara
##nä
##elu
kuula
linn
##üks
##ustes
##mä
vähenda
samm
50
##htu
##ndada
kaa
kuus
tegevus
tehnoloogia
##endid
kahjuks
linnavalits
otsi
##ntse
õpeta
##sitiiv
valmista
##umb
muuta
##rel
värv
eraldi
eva
seni
registreer
viga
tänavu
kodus
eesmärk
kvalite
liiku
jü
##leid
suh
##ette
sõidu
ütleb
inno
lugu
issa
##rdi
##isk
tasu
investeer
tõenäoliselt
##meet
##ulik
##istus
kõne
suurt
##ett
##gub
positiiv
oda
uusi
edas
teile
##ce
##asse
tohi
leiab
süsteem
##likku
##maat
meen
rääkida
ümbr
##lase
lahenda
##emo
eelarv
temp
mak
##matult
soome
am
##list
kontse
ree
##isko
tun
ühend
otsa
tol
volikogu
##ug
##vahe
tõl
usku
võta
##imisel
järjest
arvan
##led
##ras
van
blogi
loodus
peaa
tahab
laul
##istab
##ppi
vallavane
hi
lae
nädal
avatud
ca
##klaa
##jus
##miste
##mba
toode
samal
riig
##jalt
teel
võimaldab
nõus
##tasin
##sõ
ürit
##ilised
ingli
##ikuks
palga
asu
##kand
päeval
kil
##randa
aktiiv
##tesse
han
ühes
mõttes
nor
##kind
olgu
##puu
põhjust
haapsalus
##nii
ülevaa
esimest
##vust
##oos
täienda
klient
ülikooli
aidata
pealt
foor
nend
##man
hakkama
pakub
rahvusvahel
##eem
tööle
andis
otsusta
mõeldud
##must
eelkõ
viia
##udega
suhtes
pikk
##võrd
järje
2010
sajand
##geli
noore
##jul
nägin
peaaegu
eelkõige
laps
sünni
kellele
armastust
uni
##tist
pakkuda
pru
välj
rü
valits
saksa
tervise
pääst
21
rä
##ue
##dis
kultuuri
vajalik
mic
lastea
##ikute
ref
risti
ringi
##rah
olete
tark
eurot
##itel
##lika
##lim
valge
rahu
keskkonna
võtab
kolmanda
##enteer
##ingut
muuse
esine
noorte
##ugi
##pun
kohale
##hoid
saan
lau
küsi
tulevad
sisalda
tahaks
##nenud
##mina
sageli
jõudnud
konkree
windows
##väl
kontroll
##fir
##iliste
arvates
võimalda
##der
toh
##pää
##ler
sha
##ner
alates
turu
##pte
##eline
##nnet
##eeritud
moo
##igu
neli
##ure
põhimõ
tekib
##jast
tõus
tulu
mü
##võtte
siit
ring
##gen
kasut
millele
##ov
##essi
##ord
goog
üri
##plaa
kindel
tänul
nõua
ven
##kool
##utakse
uuesti
2011
spetsi
selgitas
##tide
##mest
##ikust
##võist
konkreetse
eas
vis
##ngu
mõjuta
milles
tugev
taotle
google
füüs
osta
sina
##pul
##ndeid
sõn
enamasti
kena
ukse
##ikesk
koodi
lug
tähtsa
looma
huv
tuha
tööko
põhja
võimalusi
rask
##taal
koor
rol
##udele
##gatiiv
tean
veidi
##päev
säil
sele
seas
negatiiv
pidada
##tü
turis
võttis
paigalda
##ky
##sna
##aani
##tamine
##ures
andmeb
näitab
detse
##kil
##pid
##vem
keel
##idesse
hääle
##umise
##vasti
teid
##raha
madala
juhataja
##raal
võid
juttu
##nevad
kirikus
kinn
esial
kerge
##kte
##muse
##gn
##port
plaan
must
##lep
##leer
kujuta
ometi
##jaga
õnnel
kunst
laua
töötaja
kirjelda
pes
valik
meet
olulise
tavaliselt
üsna
##moodi
##ca
##int
##kon
toob
inimestele
jala
suurema
lahku
##tõttu
ilusa
ter
reklaa
kiire
lennu
di
##kke
läänemaal
märkis
meelde
õhtul
muusika
vab
liidu
tehakse
##teg
näinud
kauge
##nõ
##lev
##ingud
##pera
presid
koera
sõbra
tree
küü
##raaf
organisa
##uka
enamus
pri
teevad
kirjutada
detsemb
##iki
kan
lase
##utatud
haige
##tatakse
##ikaa
arut
teis
##istele
##järel
##tasid
liige
hind
##eme
##isele
metsa
august
seetõttu
##juures
uute
nu
##giks
erinevaid
40
võimalust
micro
##meel
##tori
tarv
inst
dire
katse
##kaal
tervis
hirm
ed
##bli
##istuse
vält
elada
kristuse
##guse
##sof
oht
nimel
22
##äh
vae
palun
lapsi
koer
##ikese
ehitus
osal
klassi
enn
puu
kasutaja
##mõ
vah
saare
omad
2012
evange
tak
siht
erinevad
lee
materjal
näeb
##reid
tallinnas
arvut
tunnista
##rans
bra
##hke
sõl
jõul
harju
microsof
seejärel
lõuna
sellised
jätka
infot
sõit
parim
vastavalt
õpet
##nevalt
olukord
amm
##mid
laen
valda
blog
##tavasti
klass
kevad
2008
süsteemi
lasta
poleks
pers
oota
nõuko
hetke
men
##tta
##kest
##gul
tunda
mõnda
tarbi
valida
püüd
kutse
sõp
milline
for
##inn
koju
##heda
paha
sellepärast
##tuaal
valgus
jälg
pöör
##tsionaal
märk
jaanua
##ment
##teks
pead
pidevalt
tõe
määr
täiel
minema
##vald
paari
##aliseer
pild
gru
##tal
peame
aad
meeto
##hku
miljoni
tõde
nõud
kandid
peamiselt
minut
teatud
tagajär
jääda
märksa
mart
##nev
arh
liit
tore
vaimu
rootsi
##ost
##vär
sõja
aastaid
##stele
pisut
##mäe
##vahend
kod
väljas
esma
ainu
ülikool
##oot
por
##unk
toimu
programmi
maksta
##usena
##kor
viib
mullu
easi
südame
seepärast
##itakse
sõltu
aastast
##usesse
kõrvale
armastus
##eerimise
##oto
hommikul
pruugi
häda
valiku
tõsta
naa
äkki
##pit
hooli
hinnang
lahendus
nimelt
ide
voo
ranna
käigus
ur
##vo
##endatud
unenä
##riga
mitmeid
00
##tle
ba
numb
uued
##eneb
muutub
puudub
pääse
##aadi
kontrolli
innova
eem
pidi
kümne
suured
##korra
omanik
##taht
esile
##ressi
mõtles
##kalt
##fa
##geid
kasu
loodud
armastuse
##tur
tava
teab
share
tri
ser
leidnud
kl
konta
##proje
lõpus
trad
##tar
viimane
millal
pike
##ooria
naine
keele
efe
pur
##nikud
##kur
kog
olles
##üsteemi
sala
##inguid
##võimal
24
ori
##kste
##utust
##lubi
postit
igapäeva
liiklus
arm
teisel
tõst
jätta
##uli
##idab
käe
kehti
andnud
##enem
maga
väärtus
mõtet
##beri
##inim
##ensi
disa
##aeg
main
suuri
veelgi
kaup
rid
##asid
käis
##võime
##pord
pööra
okt
##gru
lausa
versioon
reeg
nt
##bu
##tehn
näide
##orma
semina
septe
##stamine
##tselt
otsustas
kala
raud
suhteliselt
septemb
kaua
##ikule
teenuse
mehe
toodud
##estival
##eligi
hulgas
keskend
viimasel
selliseid
varase
april
ameer
##udest
kumm
posti
novem
käesole
ii
võimalikult
surma
server
sharepo
##rile
prof
probleeme
##sime
töötu
iseloo
pime
pika
vide
saama
ettepane
jäävad
jutt
evangeeli
##mit
##gast
maal
aastas
##maksu
2007
##koor
##ilisi
sund
##ustavad
endast
##poliit
oktoo
##rua
liigu
politsei
suve
kellegi
inglid
rõõmu
artikli
##ves
##luste
##rak
ühist
liikme
fail
võrrel
hii
puna
##ong
maksma
religi
##ener
mat
täh
##jandus
küllalt
seoses
arvata
ettevõtete
##ume
##enti
hulk
müügi
kuule
##tusi
omavahel
##üsteem
räägib
##õpe
kaheksa
tasub
gümnaasiumi
##oet
##kui
põhik
proovi
##eid
##sk
##õig
taeva
juhi
##tion
liha
süg
mere
saavuta
da
lem
popul
vih
kaug
teistele
brause
instal
raames
##nad
##rast
arendus
##palli
konkurentsi
kommentaar
ime
##tuses
##korda
lange
##sad
23
ait
sisul
muutunud
tänulik
ex
##desse
pilt
##hoi
##aja
##rik
##tamise
küsida
##taks
##ndid
htt
joon
##udi
saata
milleks
kallis
kaardi
tõsiselt
##nel
##mik
mah
ekraa
nur
##tult
teemal
konver
heaks
kaal
##endab
millel
saat
pärit
##oloog
telefon
##rus
##vee
ühiskonna
aitäh
tsi
##vet
juhatuse
interneti
##iskop
võrreldes
teil
tulemus
##põh
sol
argu
kõigil
spordi
kümme
ah
bal
##lehe
##teid
##tund
tõsi
algab
igasug
löö
##ger
vajab
univer
##äär
##itur
##kondade
tähtis
lood
võimaluse
pidanud
jeesus
##lusi
nähta
kons
hakkavad
korras
liig
jeesuse
##stuse
tähend
pean
http
funk
võis
visu
võidu
paika
nendega
ühtlasi
haridus
##jel
##inu
##stamise
nemad
##nk
kaja
##riik
hulka
pet
maksab
unes
emo
vea
millegi
siiani
##pas
valitse
eelk
##vatele
tekkis
esialgu
en
suvel
ridala
##ikest
alusel
toidu
hiljuti
pöördu
##kohal
võtnud
##tsioonid
##kümne
järgmine
koolis
paranda
sõnum
ment
ükste
##äri
##ente
igav
õppida
##tentsiaal
kae
##tsin
##ont
kroon
veebrua
kommentaa
lil
vor
##imi
saade
##kuju
teeni
##post
##ast
##od
##inga
minul
##rek
asub
pärnu
##keskuse
##gude
##terna
##essur
keeruline
##geet
hus
##lema
##rand
sir
kohtu
deta
nn
sih
laulu
teadus
ettevõtja
meeskonna
roots
##niiri
käia
vastas
peaksid
vahele
tutvusta
kedagi
ajaloo
usk
millised
##vaat
mõlemad
ainus
isiku
##eerib
üha
tae
selgelt
##uaal
##kkus
olukorda
ressur
kos
probleemi
pile
##uni
külge
osk
usal
julge
võrra
kuskil
eelmise
kindl
kohaselt
probleemid
lihtsam
tekkinud
suutnud
bio
sk
##ugu
##aat
seadus
##hoone
##ppa
##pakku
viimast
tüd
soovib
toetust
husky
kär
näida
järgmise
õnneks
nimi
loetud
laus
kõla
käest
kasutatakse
##likuks
rõh
energiat
kenasti
alt
med
muin
##sem
##kogu
mulje
inimestel
üheks
lastele
miski
tuntud
##tavalt
kuud
tuule
##tsid
##võte
keh
punkt
##lused
teh
suhe
valu
mingeid
sood
ühest
kehte
kõrg
president
##mar
##harid
reis
part
suunas
kriit
vallavanem
komb
lang
##likke
regi
ilus
muutu
puudu
jagada
ruumi
def
it
##eh
summa
alterna
peri
turval
##gusid
soovitan
tulevikus
60
##000
sõlm
kest
stud
##ikut
töötab
kohust
##inaal
##ustel
pois
sõb
iseenda
tekst
kogemus
ameti
im
hõl
mõiste
keela
poolest
at
##likus
##eerimine
põhjus
panga
traditsioon
ind
##ml
##ikal
selg
asp
oodata
##firma
mon
##eks
igati
direktor
oktoob
selts
sugu
teeme
rohel
kella
arvu
lisada
lisand
2009
##riigi
bussi
##itöö
mehed
toit
üksi
õl
jõulu
kuulu
säilita
lepp
läheda
mingil
hinnangul
##tea
tundi
##mpaani
##kasva
kirjutatud
novemb
anne
##kiri
käit
märts
noored
mahu
tõi
oleksid
meeldib
selgub
käsi
musta
sää
##kese
toimus
kivi
õnnest
korraga
ruum
linnavalitsus
arhite
asuko
veend
informa
issanda
##nti
##aator
##utama
väikese
mõtlema
tell
side
##co
##programm
nädalal
op
ww
##ivad
iseseis
rob
nõu
inimesele
visual
##kra
##kaar
##gula
kood
puut
aastatel
##maail
##helda
paljude
müüa
esimees
energeet
eelarve
pin
vesi
##tamist
##vaba
tahe
ajast
usun
ehitatud
tarkvara
26
##jatega
##vatest
eksper
kullamaa
populaar
puhta
##istatud
püsi
microsoft
##tä
seisa
inte
maailm
##itsiooni
analüü
##välja
##tege
teemad
##endeid
ajakirja
vajadusel
##maalt
##tati
saadud
arve
võimalused
ettevõtlus
andmeid
toetus
##ql
##leda
keeles
vabataht
vahepeal
telli
www
oü
opt
##sen
##ikke
potentsiaal
##ktide
veeranda
foto
##kaa
mets
##idetud
##tsioone
käinud
viie
##aroo
##all
noaroo
mõõt
kaun
saar
efektiiv
27
##uge
##kst
##mees
##ots
##tades
##ühma
rääki
väikest
olukorras
edaspidi
ris
tra
##kooli
##tast
##een
##neda
##ikaal
ge
sch
ajaks
suurepära
siinkohal
areng
ps
##son
##har
paneb
korr
kordu
automaa
plaani
##davad
##ikum
##mele
olev
vallas
##juh
ülejää
regu
suuremat
süüd
##uur
##imaal
aastate
külla
elab
venemaa
telefoni
elust
leidis
pani
palka
treen
ph
##sep
taba
##vade
kõikide
maan
kait
##jana
eelmisel
mõtted
käima
nendest
kö
##istust
tab
muude
etteval
postita
lepingu
ülesanne
##mil
##lal
luter
##misjoni
lähevad
##tame
seekord
##likkuse
kasutamine
sissetule
tegevuse
detail
opera
##ster
##ser
korter
maksu
tegin
suudab
valguse
kilo
kaot
muide
reform
ükskõ
##imisega
pildi
statist
suunatud
kättesaa
andres
teenuste
##tsioonide
##küla
ümbritse
##tehnoloogia
iseloom
tii
##hus
##semalt
tants
puhk
kohas
reisi
pärn
esimesel
##lastele
virtuaal
põhi
koolitus
ühtegi
jüri
##tused
##matud
##pealt
##par
##janduse
kuulub
ekspordi
parima
ida
##lise
##enenud
väide
##kont
näge
sümb
kirjutab
järgmisel
võetud
nut
##lusega
##üle
##uto
##kat
välju
loode
erineva
lehekülje
##ministeeri
pensi
##just
juhtub
ehit
tarvis
üli
koge
tuleva
poola
igaüks
kusa
tänan
annavad
ehitada
festival
ravi
naer
tundus
suhtle
balti
28
##niir
##utavad
tugeva
toetuse
vormsi
##up
##bus
##istest
mari
põle
kohustus
##vatel
elanik
loen
kellega
arvamus
avaliku
pikem
##usin
##esin
vaeva
##iera
ülevaate
ammu
##oma
##roon
küsis
rääk
usalda
tasand
protsess
issand
##naa
seina
võtma
teksti
lubatud
piiratud
tasemel
sharepoint
of
##pes
##kava
##tuks
suurim
andmed
standa
##poolest
ai
##tti
##kle
tabel
tööand
##kera
temaga
ühele
tunnen
koolit
rünna
studio
koosta
kalli
king
##sil
##oh
kanal
kateg
kasutus
##ustanud
etteka
esimesed
vanemad
flas
makse
alko
kaasas
autori
kulut
mitmed
arvestada
foorum
küllaltki
##vasta
kujul
tera
##ulta
##itle
kodan
naera
alustada
##vit
##teist
##imu
##isem
võin
saate
armas
##likum
vastus
selgeks
##ngi
kom
jõuda
tiit
fo
prants
rahvast
käivita
pannud
auhinna
eesmärgiks
hakanud
kujunda
katal
vanem
##nast
arend
konf
tagant
##imisest
prü
tahavad
##vere
pidas
trü
vik
##ppe
vaatamata
äärmiselt
ag
rem
the
üü
##rea
##ndud
täps
erilist
lõpuni
kasvanud
sisaldab
mõtlesin
sisuliselt
indi
##jatel
vägi
##kaalu
loodan
võiksid
nal
##hoo
##dada
maksa
silmad
rakenda
remo
##tavate
jagu
tugi
sajandi
##likust
lei
rahvas
##vasse
kliend
demo
##luses
##isteeri
arst
niisa
praeguse
##õpet
##ntseer
üp
##ema
##mia
näol
konte
tipp
paraku
andmete
kvalitee
##imisi
ükski
kasutab
meest
joom
tahan
aitavad
kerg
tegevust
##ndis
##konn
misjon
##itega
tulid
##jatest
kolle
uurim
pöörd
omal
vasa
##rivõist
ootab
kohalike
com
video
oot
vääri
kasvu
##ikuid
lev
turniiri
alguse
##kla
##oli
##ted
jõuab
aus
##klas
loog
iseene
külal
nõnda
jõudu
sõnad
huvitatud
muuseumi
trans
ul
##kide
endal
muretse
vaadates
sobib
ükskõik
##gad
##neva
paul
##ööd
alustas
suurenda
##võr
märga
kokkuvõtte
perekonna
üpris
km
##kal
##ld
##istu
mõtteid
avalik
aura
kommenteer
appi
laad
##unda
näidata
valitud
sõnu
korv
##matus
kaupa
tiitel
ettevõtted
parema
eta
mel
##õna
kop
kogus
##deks
lõh
sünn
kuulda
194
liikmed
soovid
jalg
innovatsiooni
koda
tulema
##ktid
linnas
üldiselt
##estab
##rangu
keeruka
31
ot
##tusel
##tamiseks
##masse
igas
jõudis
kommun
soovivad
alternatiiv
aida
rel
sattu
kirjas
lähedal
halb
##did
##tead
##uski
tehti
muid
##itest
endas
kolmas
##berg
minutit
köö
##dusi
juun
kiirem
leidsin
sündinud
sära
sat
mõnik
##nuks
enamik
justkui
teises
tunnistas
kliendi
südames
lask
kaits
kasum
##tsioonis
tasakaal
##korral
seits
nägi
toid
sõlt
tööl
##estada
##protse
apost
##dad
kanda
taeb
tänava
arvuti
vallavalits
##jaama
analüüs
ie
pandud
ühine
toimunud
riigiko
ht
kla
varia
##star
##masid
keskel
##ikkel
kõigest
põllu
lehekülge
lasteaia
res
##pan
jookse
halba
algul
sihtas
aine
##giga
##utanud
##ikast
193
reed
##lin
##kodu
maakonna
lub
vest
##dused
valm
##ustamine
ajakir
kinnitas
kohaliku
##mpaania
mudel
##lil
##gne
##seer
##ustust
##tub
naise
##viis
möödunud
püüa
70
##kes
##lad
näib
leidub
##kondades
laupäeval
turismi
29
ts
##ksi
tamm
põhine
meeles
nõr
##matuks
jumalateen
tegeleda
filmi
mootor
sõbrale
hoolimata
niisama
ajate
vett
##ret
kaalu
##istused
ins
##misjon
häid
peetakse
##keskus
täiskasva
valitsus
sügisel
ren
##df
##ingel
##lub
homme
hävita
rahasta
linnapea
kuld
euroopas
rolli
45
ron
sti
##hor
##iivi
lahk
omanda
mujal
toitu
anti
tunneb
lõppe
kaubandus
##õpetaja
##kud
seku
##kar
##itseer
erinev
tagasihoid
iseenesest
dia
em
##neri
sektori
maavalits
võibolla
kirjutas
defin
informatsiooni
noarootsi
35
##teed
poeg
rääg
##entide
koostööd
ülejäänud
##mani
kaeva
##ilis
läht
uuend
2005
silmas
##sesse
olemasole
##põl
##kadeem
jälgida
##maale
otsus
esitada
idea
masina
puhasta
##mini
##ksin
##ill
##kuga
struk
##peale
meistrivõist
laenu
##imees
##kol
juul
##kivi
##rve
##telef
jälgi
tulemused
meelest
proovida
kompon
##tuste
##nduse
sunn
##ites
asuta
##ttel
##iska
##ilas
##kah
omakorda
peamine
tartus
kiv
teiseks
veebile
andmebaasi
urmas
jms
##ratsiooni
##ero
sule
##liks
elavad
piiri
inglite
õnnelik
univers
mõnikord
##too
##kit
suhte
siberi
##indus
antakse
plaanis
kolmand
aset
digi
rida
uuri
##riks
allika
aastaks
suuremad
vastava
näeme
tõlg
kummal
flash
visa
##tavat
tõr
meedia
sob
muutus
teisele
artikkel
jätkuvalt
##ring
##do
##imin
##endas
##keel
hinnata
saaksid
protsenti
kevadel
dolla
##alli
##misse
kurb
piirkonna
hakkasin
koostöös
tuleviku
##enemine
usaldus
##ske
kasv
kasulik
vastuse
otsuse
hulga
##ns
mai
naiste
ajale
otsida
kõigepealt
tahad
eriala
öösel
imeline
odava
tohiks
pesa
ekraan
##ker
omaniku
pos
##juhi
##diga
põr
2006
kasvab
teosta
kasutusele
määral
orienteer
evangeeliumi
br
est
##iv
suits
paber
abs
praegune
allkirja
pikka
kunsti
aadress
sõltub
inde
##pia
kadu
##ndit
vaatas
vahet
versiooni
sattus
##tv
##ister
##liik
maad
198
esitatud
käivad
vajalikud
hääl
comm
80
hele
##tsia
teele
##kker
osut
staa
võitis
uudis
ch
##susega
##itsa
##tunn
valmist
toomas
viha
inimesel
teenust
pääste
paremaks
isiklikult
elektri
institu
graaf
##sim
majas
##ead
##det
omale
lig
leh
aastane
nõva
millist
riikide
lahendusi
##kid
selgus
##ormi
vali
tõmba
tänapäeval
rahal
sellisel
mängida
##kkeri
90
pdf
##ven
##xi
taime
##asut
##mera
sündm
ulatuses
võetakse
toodete
reedel
dis
ska
##teel
täita
mõnes
rein
andma
tänapäeva
hoole
sula
inglise
tulemusena
amp
##jutus
##line
##manni
##imä
sum
kasutamise
tundsin
vaatame
stra
arvestades
kvaliteet
aj
hot
##dav
tere
##tif
näen
temast
teadmisi
kulud
lahenduse
mure
salv
ravim
spetsialist
sql
##vol
##sea
kujut
##imiste
sõita
maavane
vähegi
värvi
reklaam
##istusi
arene
alust
osad
peas
##puud
varsti
küsimusi
väiksem
kaard
postitanud
sh
##eda
kadunud
##tia
aastaga
mitmes
kallid
##oleku
kodule
eemalda
ettepaneku
nö
##iseeri
##likkus
##umus
##hulgas
otsustada
seaduse
kahj
ühiskond
300
ago
rum
##itut
tunni
võimu
asjade
oskab
süüa
põhimõttel
bü
##hinda
##ajal
kõvasti
algus
eestist
tõel
tundma
kuulnud
juhtus
lään
avasta
2000
kaart
vilja
finants
serveri
ühendust
nõukogu
automaatselt
##uline
##lite
osanud
tervenda
##ilisest
ilmunud
surnud
vaatama
teistsu
tahtnud
eduka
teisiti
##õnne
##lb
peagi
esmas
tarb
esiteks
##muga
##kordselt
kavanda
laag
võõr
kontrollida
lugesin
long
##idus
##utav
alus
kohv
elama
##ilises
sõnas
probleemide
hinga
##plan
öelnud
del
##voo
##uru
milja
##iliseks
nimega
vaimul
leping
vaikselt
##punkt
sugugi
##joon
##isus
paik
kasuks
prot
märka
teenuseid
##lustus
tegid
kogudus
##jõud
kommentaari
mö
när
##koht
##ustama
pilve
sellesse
piirangu
peegel
võrr
otseselt
jalgra
##ev
##if
##ry
##imoodi
tume
##tuna
peter
abiks
minev
risk
##väe
##ustuse
##nder
##viisi
kasutama
nõue
kohati
kohapeal
pilgu
paljuski
eestisse
orga
käsitle
perspe
##poliitika
lausus
võrrelda
taju
suurte
##innas
peh
turule
arvam
korralikult
ingleid
ale
mtü
##haa
##leeri
##teeri
##asin
maitse
##likk
##ttes
eelnevalt
toimib
kogemusi
tellim
jaani
hoolitse
täielikult
joomla
##hü
##oa
alal
##ppu
talu
kokkulep
kristus
##risse
niisu
peetud
miinim
##üksi
##rin
##ingim
##enduse
koonda
korteri
lehte
kasutavad
##jed
soovin
majandust
päikese
muudab
naab
500
##ity
##istavad
moel
hinnad
saavutada
tervishoi
kilomeet
une
##uk
##hind
##wa
##sega
##materjal
kuva
paigu
##mmend
tahame
arendamise
lauapalli
tõepoolest
muinsus
##iva
tuul
püs
moti
mõelnud
otsima
##vii
##idud
##isti
toom
tänaseks
arvatavasti
piiskop
ettevõtluse
viljand
pühitse
##pääs
longhor
mv
pel
up
##dub
##itis
laht
tööstus
üksnes
##konnale
##ühingu
nimekirja
sõpra
ameerika
lemmik
poiss
##ikü
##istel
##gile
mail
##idavad
tõuse
##rvju
kru
meeskond
##ograaf
niimoodi
näitas
põlv
##korras
imp
kalev
naised
suurus
sooj
igale
uuem
otsingu
pühapäeva
ärge
mugav
normaal
##essionaal
väljaspool
app
õhu
##mendi
##pile
##inas
tehes
läti
##konnast
selliste
vibra
turul
märg
üheksa
ilmus
tallinn
samamoodi
rakenduse
##lusest
int
ingel
##või
soomes
jäid
viim
riide
##hone
joha
vähendada
##plaani
analüüsi
aina
rikk
##siiv
##leri
valimis
algas
niivõrd
akna
templi
kategooria
muinsuskaitse
her
##uba
##igas
vaen
##rita
##juhul
keskera
tõmb
##lesid
eralda
küsimusele
arendada
##väärne
tekitab
mobiiltelef
ainuüksi
loodetavasti
glo
kulus
##ndust
##likas
veda
minule
avada
##eerima
milliseid
kirikut
julg
kavatse
fran
##hol
##ikõ
materi
seitse
##kohta
ühenda
##osal
huvitava
reag
tootmis
sadama
nõuab
##istamine
tegemine
##rdin
ehkki
kih
sulge
lugeja
lubab
kõrgema
vajadus
##koo
##ff
##cki
##uden
tai
käed
stabiil
hakkasid
nädalavahe
nalja
ste
##has
##eela
vahenda
##nded
saime
paks
##umber
##itele
kuuluvad
järgmised
korraldada
lõppu
mäleta
sügava
tarbija
kiiremini
aju
wa
paistab
pakkus
püst
pank
tehnika
kulub
arhitek
32
klubi
nee
sc
##kri
##urid
nar
nõust
vaatasin
otsas
liikmete
##olek
lähene
toetada
reformiera
hotel
lol
##ismi
peapi
##ustatakse
kree
minuga
inimestega
tunned
##fond
vältida
mentor
periood
kommunika
taebla
ber
ilu
kapit
##itusi
##istide
seejuures
sooja
kõrgem
elanud
seisukoha
käsitöö
konverents
ms
##alne
##elä
saamiseks
kasutades
mälu
nõude
vastuvõ
kellest
päevad
osaleda
kuhugi
haigla
eemale
ado
gümnaasium
##mäng
eemal
melo
pre
rik
suusa
lume
suureks
hetk
rakendus
sõiduki
hiina
intervju
õud
sunni
teatas
soe
keera
teenida
täius
abiel
tulemusi
juhus
##rja
##aajal
##utamine
pokker
näht
eestit
süv
vajavad
pree
eeskuju
kirjutanud
vabariigi
jumalat
uurida
viisil
internet
puhas
spetsiaal
iis
##side
##piir
##duses
##seisu
sõr
suures
##peri
polegi
kasutatud
endaga
vabadus
mobi
linnavalitsuse
##ikeskuse
menüü
renov
ajut
dim
pas
pat
talve
##eerivad
teistest
piisab
pähe
projektide
melodia
bo
tre
web
##pü
teat
##stega
planeer
töökohta
märkimis
uuemõ
01
ea
##bo
##sead
tam
laeva
koori
lehel
##part
varja
põhjusel
värske
##fondi
kosmo
uju
##cs
paist
##kate
nato
külas
välist
##innapea
##ustamise
loome
olulist
kart
hulgal
küsimustele
kaitsta
ettevalmist
ego
pul
visi
##rat
##sama
tegeleb
##nute
turniir
2013
külast
hirmu
toetab
kasutusel
konsulta
longhorn
kre
lind
wal
##vise
##ürit
##matele
##koda
kasvõi
kusjuures
##matut
ekspord
vabaks
konkurents
mõtlen
protsessi
film
disain
seisab
moodi
##usu
##gev
vastust
kraa
##imisele
teenus
raamist
püsti
algusest
vanemate
poliitika
kellelegi
pension
vend
##ase
##rg
##maga
kane
##sia
sage
laia
võimatu
lähte
käitu
##võrra
teame
looja
ajada
turva
ajalool
endiselt
tulumaksu
kusagil
kiiv
kaled
võl
sektor
teadv
kohalikud
suudavad
töötanud
hoiab
neljanda
vabal
##energia
sõbrad
##ket
##sist
arua
mõisa
veid
##oonia
##kassa
##tsioonist
192
halda
nimetatud
parandada
konkursi
taotlus
täpsemalt
töötajate
pakuvad
nõukogude
triinu
prügi
demokraa
##ues
ideed
õnnestus
tõsise
raamatut
mõninga
valesti
miinimum
##ži
##tahes
##isega
seltsi
##liga
vastupid
kohalik
näevad
kirjel
objekti
kuulata
##sõidu
muuseum
vabalt
tüdruk
korduvalt
perspektiiv
##op
##tsu
##ikuna
niigi
loota
kaldu
2004
abikaa
sinuga
##teegia
edukalt
elektroon
laeku
meetodi
ajateen
##volut
kestab
stse
##kene
##ren
##wit
##ear
##liidu
eestlaste
haara
##huks
uuringu
meister
lahendada
lugenud
professionaal
sääst
sunnitud
ajalt
oste
vo
##tase
kuur
vai
197
karma
küsimused
muret
paremat
administ
omavalitsus
ulatus
martin
taevas
meditsi
php
ile
mik
sor
##usika
kana
olime
külm
##kasin
vastab
viimased
olemasolu
mõistlik
komple
organiseer
comments
plus
tuden
##tut
##utatakse
##etuseks
minuti
igatahes
tagasis
huvil
muutuvad
silver
tiheda
pikaajal
ühiskonnas
võeti
õpetajad
##hää
##eel
##volikogu
##fina
##dame
madal
##het
juuni
suhelda
metal
##likkust
tööjõ
asjal
##eerimist
väljatöö
tundu
üldjuhul
paljudele
pühapäeval
lapsevane
fac
õhtu
##plaan
organis
az
hol
ohv
và
õh
##petsi
##stru
##tari
pub
talvel
eksa
##kümmend
paras
##poolt
püüab
reguleer
##itused
vajuta
olemuse
lahe
ülemine
erinevalt
eksp
saadaval
##ikkuse
jutu
##tavaks
vahendusel
põhimõtte
raudtee
funktsionaal
sid
##soo
##oogi
vare
##ndu
selja
##rig
##ron
teemat
new
##rdit
pärine
küsit
juhtum
ettevõtjad
##beda
teistel
taotluse
selgitada
tüüpi
küün
gener
vò
vol
##udeli
##itua
võtavad
##valv
nägem
maale
##veda
vigu
elanike
koosneb
kaugelt
lõpetuseks
kannab
sarnane
kellelgi
biotehnoloogia
lubas
33
eet
fra
##tusega
##lem
marek
meh
##ideks
eestlased
##via
##istanud
kõrvalt
lossi
teeninda
##porti
millise
läksin
pisike
taoline
lüka
valitsuse
ühistrans
##ülesa
konflik
peapiiskop
juri
tš
##kutse
##lusele
##oom
##imo
##jagu
##stamist
laine
##likule
regula
##ndiga
põhjuseks
##eläbi
wie
##kulu
##jo
väita
##tsus
puht
teavad
##päevad
läksid
räägivad
##saare
võõra
liikuda
positiivne
huvides
##haridus
nul
##stud
##taa
##ets
##matel
jääks
elav
päevale
riigis
aegade
##teeritud
päike
raamatuid
öeldud
tasandil
põlluma
abikaasa
##petsialist
##kles
##kilt
##tajad
kavas
seeläbi
lab
näed
minust
tulekah
loomine
ülest
üleval
esin
ühelt
viida
kolled
inimestest
keskmine
kooskõ
mõnevõrra
asenda
arenenud
südamest
##ikoha
määratud
tõenäos
##õpila
josep
kogenud
käesoleva
mess
ostu
koe
##mega
patsi
arsti
##juha
eriline
ütlesin
vaimse
kergem
leiavad
mängus
täitsa
viimastel
robot
optim
html
baas
ping
##pse
##õus
##ünd
##ct
oleneb
##itada
kõikidele
üksik
kasutajate
##konnad
##teerida
nädalat
pakuta
öeldes
pimeda
enim
ir
##nime
##mend
##iri
kokk
vanal
võeta
leitud
##eeris
vastupidi
keskuse
olulised
inglis
abiga
mõnel
järjekord
##pääsu
andmebaas
alkoho
ann
gt
rüü
##jja
##majas
##taali
##asja
tubli
sukles
kasul
lähtu
teate
##pete
soori
põhise
osutus
suuremaid
erinevat
haldus
viimaste
##eeritakse
tulemuseks
valguses
kaugele
##tid
##vist
##tavaid
##jan
##kast
töötas
keelt
uues
vastav
järgmist
ettevõtjate
pannakse
##oorium
hinges
azure
äh
##hä
##lii
kad
##raktiiv
vari
kümn
lähi
sedavõrd
teavita
lootust
lõik
igaü
##iajal
meeste
jõu
hooaja
päevas
keskmise
teadmiste
poolel
##verda
vahetada
jätkus
puudutab
esimeses
abielu
##proble
tavaline
võistlus
istun
kahtle
sertif
wiede
##ntsi
##utult
liin
maksimaal
##tsiooniga
tunnevad
pidama
kutsuda
tasap
lihulas
turundus
juhib
akadeem
eli
##kaas
##pii
kale
##enes
man
tuuma
keskk
##usteta
soom
hob
suuremate
hald
kirikute
reklaami
##ministeeriumi
pikemalt
kaledon
36
rikku
sport
##pir
##mann
##haig
##ork
##viga
ülal
keskkonnas
liiva
kirjutasin
##kirjas
vanad
piib
##palju
valdkonnas
##õppe
jätkata
korvpal
otstar
materiaal
juriid
klaa
vms
##isõ
##han
##kondi
lause
nägu
naut
sõid
töötavad
töökoha
promen
ettevaat
toonud
kokkule
raadi
kaugel
noh
õppinud
kaob
##hvet
sammu
pileti
veerandaja
alkoholi
400
bä
##ikon
haua
tõnis
##nnete
asus
iganes
##ngud
tundnud
juhtu
##gram
aitah
ääres
tooteid
materjali
keelatud
teemadel
standard
##planeer
75
##ukse
##öid
##stust
##stest
katuse
vang
sein
peatu
aluseks
tõu
tõeliselt
neis
##red
##itee
tooma
läbivi
juhtunud
oluliseks
pilti
sooviks
peeter
tutvuda
jätkub
adobe
##pide
##ginaal
##fil
##serv
##usmaa
kurite
sekku
intel
poja
##masina
prohvet
##istama
##ikeel
avastas
varju
mõnus
organisatsioon
tavapära
joseph
aust
lenda
nr
##susest
kampaania
teooria
##neid
samad
##lig
sõber
lõi
kuskilt
##itsid
majanduse
tekki
linnu
sobiva
häält
esindaja
objekt
vallavanema
tuhande
detsembril
küllap
seegi
##kesed
progn
##paiga
üldise
platv
vajaliku
##lastel
määrata
mäletan
finantseer
käsk
##kindlust
klientide
voola
##lehekül
igasuguseid
lille
kindlalt
viljandi
jäe
##kee
##ism
##teet
##imised
väge
rada
##endust
oligi
põne
eeldab
ajas
vastast
maailmavaa
paljudel
##lastest
elluvi
värsk
tolle
roll
osaliselt
##projekt
wiedemanni
gra
smit
õhku
##for
##semaks
##ins
##istes
##lale
tausta
kõva
näo
selliselt
karja
infrast
koduka
pealkirja
hakatakse
jalga
neljapäeval
oodatud
hariduse
pühend
senisest
põhikooli
väärib
ac
sim
##tajate
##jaile
tehta
kõiks
võite
peate
paluda
koordin
tööri
##ralle
märks
halvasti
lugedes
unusta
looming
domee
kaarli
artiklis
lüli
kontsert
##punkti
person
aadressi
ideid
hiiu
aia
rüh
usta
vt
õie
##amet
##elised
##nema
juhenda
##ääk
##tunne
palk
suurendada
igave
oleksin
otsuseid
vähemasti
tart
muutis
teadmised
kogemused
väljend
hõlma
tagasiside
##lina
##ys
##tamisel
##imüü
laie
##kaid
met
##kute
töös
eeld
arvab
ootama
erase
lahendust
lahendused
pikalt
vaevalt
infrastruk
fan
pingu
##tuseks
paralle
##kile
##ikuga
##konnaga
osaks
andesta
juurest
juhtida
vastavad
järgmiseks
huvitavat
tütar
##käi
institut
rootsis
asukoha
##juhid
##pesa
sattunud
diskus
akti
istus
rss
tse
toon
##ktsioon
##aatori
kuiva
maht
seest
paind
lob
liigub
##eliik
2001
mõtisk
kolmapäeval
omavalitsuste
##ooriumi
ülevaade
##rahva
meetod
dt
##moo
##mmata
##pilt
##press
##bur
##rium
suuruse
välim
##paist
kõikjal
osales
tänaval
veevär
vastuvõt
196
vastata
##osk
meeld
asemele
suunata
tasakaalu
lõppes
haapsallu
tuhat
martna
psüh
seitsme
delfi
mvc
bar
rühma
##ktsiooni
##pub
##inaa
##inime
##istõ
oleva
kirjut
##hkalli
maast
vastused
rahval
korraldab
##osoo
vanaema
unustada
kliendid
lapsele
töötajad
rahulda
rahulikult
mälestus
teisipäeval
meetri
religioon
matka
ekraani
põhimõtteliselt
aitahhkalli
pir
rest
sy
spord
##määra
##visi
##setele
kande
kõrv
lib
töötada
käega
##nnes
kasutanud
regul
rohu
vaate
loh
juhtudel
kalle
unikaal
seisma
mitmete
räägitakse
puhke
vähene
kaamera
esineb
kodum
argument
kaetud
individ
kokkuleppe
heli
ves
##bil
##ci
##taval
kats
##nar
##oreet
läheks
toimuvad
seisuga
tegutseb
loobuda
kehtib
installeer
ese
##ias
##õigus
##riku
kahel
liid
palu
kindlust
loet
juhtimis
kall
koolituse
õpetada
##ikkus
tuttav
saksamaa
organisatsiooni
emotsionaal
riigikogu
con
siir
##tree
##ringi
##lusel
##inti
##ksu
##istuste
##gias
##valve
##kuul
peatselt
vastuseid
alanud
puuduvad
õppima
vajadust
tegutseda
##kulud
ülesande
võimaldavad
uuemõisa
hulgaliselt
55
65
endi
##etud
##bral
kumb
##ustöö
##dete
võimas
valmi
eestveda
##kia
väljaa
##ustav
meiega
vägagi
jäät
##gela
elule
harjuta
nimetada
ebaõnne
mängija
lühike
pöörata
kadus
##geri
paberi
kasvas
toas
korja
rock
vastuol
##ühing
soeta
juhtuda
kahte
##ikkust
kaasaeg
mingid
näitavad
kutsub
kuue
##kandele
riski
kättesaada
kataloog
kvaliteedi
variant
ülestõus
tasapisi
dan
õde
##git
kumma
mand
##kogud
suund
saja
tähe
rand
##keid
asuvad
##vatiiv
195
##torite
karila
kulude
õigesti
hinnaga
##järg
riikides
tükk
laiem
kandis
taolise
vahendid
foorumis
päästja
##rakend
religiooni
sõbral
protsed
lk
nü
##kesi
kap
testi
suude
##irääk
##kuid
teede
##keti
järs
eelnõ
jääma
##dusse
kollane
tänase
turuma
viimati
sellises
korraldatud
tulevikku
##kutsel
tegelema
##riigis
internetis
valmistatud
tüdru
sümbol
koerad
pinna
##jä
võtsin
vära
##statakse
tõdes
asut
kasutamiseks
jätab
tunde
kuuluta
annan
peeti
firmad
seadme
keerulise
hanila
põhimõte
mainitud
##milla
kodulehel
välistur
regulaar
jt
öko
##lõ
##udio
##este
##site
saatus
##likul
leht
aastakümne
maas
arvesse
näiteid
##inguga
pressi
teadnud
##lustel
huvitavaid
lõpetas
tahtsin
igasugune
raamatus
tüüp
viskas
formaa
pildil
konverentsi
indrek
##programmi
estoni
otstarbe
individuaal
ajad
astus
här
mäe
mistõ
##jud
##che
##stel
##siga
suu
pakk
##valla
omaette
##kule
järve
##oones
kasutajad
nagunii
##kasuta
tegela
katk
kehast
mälest
avaldada
leedu
microsofti
tagajärge
rannaroo
pilet
absolu
salvesta
mistõttu
eb
holla
sto
vood
##ksime
tamme
##ritega
maine
super
san
armu
poe
näl
näit
naha
##unal
##isiis
väikesed
niisiis
rakenduste
esindajad
klassikal
##grupp
preester
dimen
õieti
38
tru
##salt
##dur
##gna
##sena
##tad
kohti
##stanud
täidetud
nähtud
##itav
algust
minnes
koond
loodab
##onüü
maarja
##istatakse
tagada
eelda
eksist
kindlaks
puuduta
150
faili
vanema
pildid
unenägu
märkimisväär
imm
messi
pära
##dusega
##linna
##wer
##makse
väite
tub
##samb
##kub
##ked
loonud
##matust
vaat
kogunenud
jällegi
punktiga
tekitada
registreeritud
võtame
##projekti
valminud
digitaal
kra
ling
##rini
##ges
##isust
jaot
##aare
meelt
kass
peaingel
##lesin
loomise
viisa
praost
park
2003
teinete
blogis
##keskkonna
päl
lühid
kriis
harjunud
perioodi
miinimumpal
akt
eil
lum
õr
##gused
##isuse
##imoo
##kade
tänud
##tsion
sõda
konto
vastutust
häiri
kalda
##kirjad
piisko
inglit
identi
teistes
leiad
võrgu
ärka
tulevik
parimad
praktiliselt
tulumaks
venna
koerte
muinas
õnnestunud
tantsu
kontekst
mor
nent
number
situa
##plo
##õr
##ido
jao
kaela
kodust
võinud
##sile
##mehe
tuba
##tuvad
minimaal
tuleoh
puid
lootus
lootuse
looduse
kaasne
##ilisele
silm
seisneb
inimesega
rakendada
##mokraa
sündis
tahtis
sarnaselt
garan
##osakonna
odavam
väljenda
kirjeldas
puuvil
sõjavä
ainuke
reguleeri
festivali
tööandja
##konnal
rut
##une
##fid
kukku
pokkeri
kordi
luna
rocki
heaolu
räägin
ajalugu
vabaduse
ilmsel
laienda
isiklik
tingitud
tingimused
vihma
soodsa
tellida
aidanud
struktuur
##ikõlb
jm
##hvi
##aega
##isp
jama
##vah
##vana
komisjoni
##demokraa
aluse
##iew
elame
ehituse
perear
2002
väärtust
piirkonnas
lapsepõl
osalenud
paremad
kustuta
noori
camilla
rahvusvahelise
tohutu
partne
dü
suri
##õidu
##gümnaasi
##ikind
##ulise
##deid
näituse
##ustamiseks
##park
aastad
##eerinud
esit
esmalt
turg
keskmiselt
muutuda
järgne
annaks
postitus
riiki
##minister
vanuse
meetrit
territ
haiget
puutub
rääkima
kokkuvõtteks
meditsiin
##probleem
gar
ign
##ll
teoreet
komisjon
##ravi
magus
##itas
aar
korre
##ustamist
##usteks
häir
koosseis
pilte
kristjan
keeru
öeldakse
majanduskas
usutea
juhid
viru
tekivad
kvalif
tingimustes
hetkeks
statistika
nägema
ignor
42
aegu
uhke
##menta
##pres
##rgi
##semad
varu
võitu
##ript
sait
live
realiseer
tegemiseks
##ruumi
kalmist
kipu
õnnestu
postituse
mõlema
##plats
ründa
seletada
ausalt
ideaal
kle
kits
und
õhk
##kiir
##ük
võtsid
##laselt
##valu
##keha
##isatsiooni
##matuse
andre
##unik
uuenda
pealegi
sealhulgas
halva
soovime
piima
##nesid
ebamuga
ruumis
devalv
arvestama
puhka
1000
seminari
viker
sihtasutuse
nädalavahetusel
mobile
tamre
lühidalt
gen
hilise
iraa
yo
##koon
##kteer
##koori
##rum
##lide
##ook
##vajad
##utöö
##mets
##miseni
juuli
##saal
valiti
eestikeel
põranda
loodust
võimsa
kasutamist
uuele
häv
arvatud
sissekandele
tulemuse
link
arendajad
kutsutud
lõppenud
reaalselt
sünnipäeva
vahendeid
grupp
strateegia
maavanem
esmaspäeval
oper
##cha
##lest
kaha
##eeni
võtan
tag
##gevuse
maini
arust
##ort
tõmmata
niipalju
ettekand
aspe
##inad
külma
arvest
log
muutused
kallas
tunnistada
õigust
erakonna
uuring
sobiv
##pärane
mängib
igasugu
jaak
ringis
taotleda
tellija
erinevates
mobiiltelefon
neeme
rannarootsi
cra
gu
kitsa
õuna
##kala
##levad
##vamaks
etp
suju
tõeline
puutu
##ikad
##ikele
temale
nendele
##lasse
teisest
harm
moraal
projekte
lugema
##oloogil
nokia
arendaja
miika
haigus
põhjalikult
aktiivselt
magama
õnnestub
remont
maavalitsuse
aktiv
kò
ske
vid
##tusest
##pee
suval
lamm
##kun
top
hamba
teeks
mitmel
##maad
##maani
tervik
mõttetu
piibli
tugevalt
ettevõtteid
laiali
võitja
lõpeb
kõigis
väiksema
astuda
raskem
atraktiiv
laadida
37
dor
lt
##sema
##setest
##stama
##organ
valis
##eerimiseks
##veri
sotsi
keskus
lähemalt
kaasnevad
käibe
panin
õpilaste
süüdi
##maatika
uskuda
remond
staadi
asel
bi
##kret
##mpera
##reet
##inõ
##oosi
##utule
integ
rai
rapla
liitu
##üüa
heade
peit
##jandust
maksude
karm
kohad
päästa
lubada
sobivad
paigal
kontser
##eemia
##enemist
pöörduda
näidanud
kanepi
tulekahju
03
##ski
##oti
##bid
##zz
##imee
tenn
olegi
saagi
##oris
leg
krim
külj
ainsa
ajaga
osuta
elamu
teadsin
mõnele
191
olulisi
ettevõtlust
ruut
tootmise
tegelevad
taolist
tootear
sügavalt
ühenduse
tõusnud
sõprus
brauseri
saadetud
seadusand
medita
oktoobril
maantee
levinud
suletud
nentis
dem
fero
peet
##süsteem
##con
##seh
kast
##ulaad
##itor
##iif
kuivõrd
inn
naf
tööst
levita
propa
talv
##ruum
elukutsel
rahule
vastupida
teadmine
seisund
miin
ettevõtet
artiklist
kinnisvaramaa
olulisem
argumen
regionaal
rääkinud
röö
äs
##ft
##ratsioon
suhk
paiku
##lile
põnev
küljest
tänane
teadlik
sõnadega
julgust
muudatusi
jaanus
liikuma
asuva
##meeldi
jaanuaril
##vahendite
valikuid
arvele
toidua
aselinnapea
fä
litse
veer
##galt
##inä
##teeg
##istid
minus
käisin
sündi
eelne
andsid
tundis
lisab
##tajaid
seast
hullu
##mmer
ametnike
lõpetanud
ütlen
##koolis
uksed
kaugemale
menet
disaini
kümmekond
korrekt
ger
ret
tooni
##gina
##isema
##gib
valimist
asuda
veerand
arvel
rahaga
vaimus
vaimne
hulgast
küsimuse
suhtumine
ebameeldi
päikest
tekkida
sarnast
lähen
armastab
buss
väheneb
põhikool
##isteerium
vallavalitsus
04
600
klub
##pinna
##üld
##vajal
võttes
mani
juhuks
vastutus
##istati
##ppel
hukka
endine
jättis
parata
esimehe
sisene
##riteeri
esimesena
pakutakse
praktika
meenuta
aprillil
stsenaa
##etsiif
##osoof
absoluut
34
bee
hala
morm
pisa
##rika
##dusele
##ikä
##land
##mehed
sugula
omast
omanike
##duda
igat
ajastu
maailmast
abikõlb
liikmes
jätnud
##eeskond
asjast
kahes
##külg
perekond
spä
tutvustas
suutis
jõuavad
lühe
seisukohta
üllatus
hiil
norra
vennad
jalad
iial
partner
sky
##om
##ülik
aruta
nais
##umu
tundeid
päriselt
jumalaga
##märk
kurja
kursis
noortele
lahenduste
kuning
kuninga
##ikeskus
valikut
konkurentsivõime
üksteise
sirje
kaunis
suurepärane
arengut
misjonär
möl
arhitektuur
hen
mm
oks
##duste
##festival
##dam
##date
karu
olge
seeria
laula
tuleval
##old
võimaluste
pood
oskus
teenis
##tokol
soovitud
jõudsid
ootavad
korraks
kogemust
meenutas
kontserdi
kinnistu
kontakt
sharepointi
veebruaril
treening
ettevalmista
perspektiivis
bel
dele
out
uhk
word
##pra
##net
padu
peatree
pala
võimeline
kohalt
kõrva
avab
kiusa
õigel
blok
lastel
raamatukogu
kaotanud
lähenemine
raamatust
läbirääk
panema
dokument
õpetajate
innovatsioon
usaldusväär
paralleel
tp
wi
##tulu
##klubi
##salu
##joo
##vab
##rada
tap
selgu
saks
##mmi
loits
arvamust
prin
teenused
peaksin
hinnangu
aitas
tulemuste
teinekord
staat
neljas
võrgust
##kutud
jaapa
vaikimisi
saksamaal
tähtsam
seminar
tähendus
säilitada
ip
##ameti
kab
omaosal
##rokraa
mun
suuresti
aastapäeva
##nnu
##istan
kelgu
koguaeg
võrk
##aadid
pidid
kultuurimin
puhastada
armastan
tõusis
##konver
septembril
pärnus
üliõpila
inspir
jalgratta
##eelarv
faceb
cm
hisp
imet
mò
##ikir
##gar
online
tahes
tuva
##kaks
omaks
##orit
tõh
##ttevõt
vaatab
uuest
turund
lähemale
harva
taasta
kinnitab
play
spetsiif
natukene
lõpetada
praeguseks
leheküljel
võrdselt
rõõmsa
kirikusse
postituses
ameerik
veendunud
üür
kulusid
##püha
kaugeltki
karilaid
rfid
##kult
##mile
##seeri
##lemine
juukse
suv
laena
näid
##tunud
tulemas
##mistest
loov
##pad
##panu
osakonna
ande
##art
kallim
täiend
lugemist
külastas
lehekülg
kompen
john
klientidele
müst
nurga
apostel
ev
##nas
mais
##komisjoni
power
peamiseks
##eneda
##terjale
saadab
seade
hall
tunnete
##ikusse
star
kutsus
raamatupida
virtu
viimasena
tahaksin
##maailm
lähtuvalt
varian
järsku
ky
##imit
kot
##gutas
mate
paiga
valus
kütuse
vastuta
tegemata
tooda
suuremaks
nüüdseks
avaneb
kirjutan
nimetas
huvitavad
tüt
lastega
paljudes
mass
loomulik
omavalitsuse
hooldus
pidev
õpilased
##mängu
mõjutada
jätkab
evangeelium
kõlab
novembril
märtsil
instituudi
lähtek
bro
mot
niko
##muste
##iu
##gilt
##stes
##iloo
##rant
võla
##urite
##get
##utused
##ass
lad
initsi
##kam
täide
kätt
##ustades
##jala
ettenä
##rega
ühendus
##mber
illust
toovad
ollakse
anonüü
korraliku
teadlikult
peaksime
maksum
seada
jumalale
ristimise
selgitab
säte
salli
sügav
otsib
mõjutab
originaal
oskused
##naam
kummaline
bürokraa
viimse
kahtlemata
psühh
08
44
itaal
##kr
##ssid
##ip
taust
##utusi
##stavad
pandi
rain
käisid
lootis
iseen
luule
##maade
eestimaa
##miga
ülim
tarbe
esita
harra
meeldis
margus
mingisu
##ingimata
ametlikult
projektid
priori
edenda
rääkimata
##õpetuse
jalgpal
majandustead
phone
žü
##susele
##süsteemi
##õõ
##dusest
##alal
##elise
##lah
##urd
mats
##meist
##kokku
saatis
past
##sasti
rap
tonni
teavet
loomad
lõb
ühise
kasutan
hooajal
ajab
##ilisel
sinust
kohast
##päevast
ehitati
teistega
pühade
meelega
haapsalust
pidin
dokumendi
odav
esialg
töötajaid
õpetus
kombel
struktuuri
vaielda
nüan
cms
kva
kitse
pend
vile
##kler
##soni
##pist
##iik
##rise
##jäär
olend
olevate
paigas
missu
peast
allikas
üleseh
##otüü
osade
eelmine
koguni
küsisin
kohane
liikumine
lugemine
tunnet
kaheks
kohtumine
kodulehekül
mingis
riikliku
õppet
piisav
tegutsema
ööb
vähenenud
sõnumi
otsustasin
roheline
kulutusi
kompete
tsent
ete
istu
lüüa
mes
sten
ya
##chi
##allika
jane
katte
##laseks
mana
##kuks
peatü
teemaks
tööde
levi
prote
esse
##uand
igast
igaks
eelmises
jõe
##unt
teadis
##küsim
##olekul
puudus
huvitab
panuse
tulemust
plast
domin
väiksemad
hoolda
puhverda
tihtipeale
tühi
küsib
kandidaa
igasugused
motiva
mikro
põhisea
02
bill
ket
nig
ty
til
##abi
##maala
##ndist
##likest
valinud
loos
kasutame
##istega
jõge
pese
nõuda
viit
rahako
harul
postitust
poolda
suudaks
tegutsenud
##jääri
##aastane
võõras
üritus
oskusi
standardi
infrastruktuuri
ken
##halt
##õpp
##vik
##10
maria
tän
libe
tulenevalt
pali
tõesta
##võit
kirjal
##nnik
jäta
##istamise
keset
peks
##psu
otsustab
kallal
ehitust
autos
kihel
problemaat
##raamatu
pihta
soovitus
taani
õnnetus
##htede
peeg
kõrgemale
keerulisem
moodustavad
andmebaa
##õiguse
kehtestatud
##kaare
väikeste
pensioni
meistrivõistluste
ilmselgelt
ausa
omalt
tro
##voor
##bal
vaju
##ere
pavil
pakutud
profi
##paraa
revolut
andeks
##vatus
rahvale
rahast
keskkond
keskkonda
avas
pooleli
pilk
soovis
##gudel
kiirus
##rolli
tegevused
fakt
valdkonna
muudatused
veebis
moodul
##firmad
punane
tehingu
kestnud
##ministeerium
loengu
##võrgu
relva
jookseb
rumal
miljardit
pankro
integreer
nafta
iseennast
fot
klik
##suses
##pti
##ingas
##aale
teiselt
tempera
tahte
juhend
omanikud
##imehe
mujalt
korvis
eshü
endasse
otsust
tunded
korralik
ilmub
asjaolu
seisis
kliente
##looma
põhjaliku
ütlevad
käsitsi
klii
reeglid
tahetakse
trük
platvorm
ferodan
mormoni
07
09
lut
ok
##gine
temalt
##gevus
mase
saidi
tõste
##iteen
krit
tagab
nõrk
viitsi
otsimoo
elas
märku
kaasneb
riigid
kirjutama
endise
kiirelt
juhatus
tegevuste
rõõmus
ettevõtetele
loetakse
##käik
##käigu
masin
mõlemal
asjadest
##ettevõte
ürituse
venela
dial
aivar
tõuseb
silverlig
tunduvalt
smith
kontekstis
hispaani
47
beta
oran
tà
##õhtu
##rh
##rühma
##luseks
##ör
##majanduse
kuuse
##usti
##ned
tah
seik
olemus
valimiste
palume
tõest
loa
sotsia
arvavad
kald
riigil
hakkan
halv
nimekirjas
vaimulik
samasu
samasug
õigustatud
kohtus
##märgi
##keskuses
kogemuse
fire
võitnud
sarnased
##teenistuse
filosoof
valmistada
nädalas
##võimalusi
profess
kommentaare
maante
maksumaks
juunil
tervishoiu
apple
nina
pà
voliko
##ruse
##rust
##bü
tanel
##kapit
##paika
konser
tegemise
toona
##rdid
kelder
jään
tänav
kokkuvõte
seondu
asjadega
panen
##reen
kaitsevä
pakkuma
tegevusi
majapida
##väärtus
armastada
püüan
sotsiaaldemokraa
puhast
igasuguse
arusaam
loomade
pesu
tagajärjed
portaal
pikemat
langenud
rääkides
lasknud
dollarit
toomkir
globa
sertifikaa
05
51
amb
lik
ukra
wil
##20
##tent
kaud
teres
##ulised
##istuseks
##dek
palus
sõjal
maakle
mitut
##inat
##veti
lisatud
autot
karta
õigusta
kahest
##beti
kujune
##iseeritud
programmeeri
mõnigi
##utunn
mängima
kullamäe
erinevatest
priit
augustil
vaev
kontakti
armsa
armsad
install
üksteist
eksperim
kommenteeris
räägime
aadressil
sattusin
püstita
##inspe
skept
ede
rent
wiki
##rü
##ümp
##idelt
##gija
võida
olevad
##koer
vala
##umäe
protokol
##ttevõte
osavõt
rohke
kehal
tarmo
tunduvad
rahandus
pereliik
pih
paradi
heal
kannata
##poolne
kaotada
maailmasõ
innovaat
investeeringute
otsustanud
naaber
##tastroo
alustuseks
pluss
##tulundus
48
dig
oku
rend
traa
##ete
##dita
testa
##rav
##sip
tuppa
##her
sub
lauda
aret
nägid
naud
##umisi
teemasid
puur
loodame
##vile
vees
otsused
kulge
##olekut
sõnade
armastusega
väärtuse
erand
kasvatada
lubanud
##jutuse
valdkonda
hoidma
inglipesa
põhjustel
foorumi
##rahvas
sõitis
disaine
##hoiu
tabas
konteine
transpordi
##grammist
resto
bla
du
eduse
##uut
##ton
##hin
##miku
##van
saage
armee
esindus
erilise
jääd
mittetulundus
uuel
uuendus
ainulaad
otsing
teeninud
kauni
##likumad
aegadel
küsimust
õpetab
leidsid
pealiska
##kordne
mihk
vaadake
kujunenud
seadmete
julgen
haigest
muusikat
toimetule
finaal
külastajad
##alismi
investeeringu
reede
taotleja
kujutada
laseb
arutelu
täielik
##vahendid
url
keskenduda
remondi
kodanik
pärineb
muinasjut
##vahendeid
itaalia
teresa
06
85
nimist
sär
twit
##nur
##rina
##gise
##len
##ley
##das
javas
seks
mehi
##liin
tõmma
##onti
tänases
hukku
koguda
piltide
ennem
avalikus
seisu
surve
sellisena
rakvere
tehnilise
murd
leian
mõõd
proovinud
proovisin
tooted
üllatavalt
##ettevõt
laupäeva
sisaldavad
töökohti
termin
ootame
igavesti
kohustuslik
kergesti
tööriista
veski
dünaam
pealiskaud
56
cha
mal
mut
skand
##musi
##psed
##ly
##work
##inf
##idee
##aari
##raja
male
jub
kõl
kõnd
##tudes
##ääri
keska
##pper
talgu
##puhk
asjaol
surnu
tugevad
kergelt
jagab
jagatakse
##ilistel
vajaduse
soovitas
raamatute
lähiajal
luuakse
nendes
sajandil
kolmandat
ootamatult
jaanuaris
grup
pikemas
reeglina
david
kaugusel
open
tiitli
nõuded
paistis
ähva
avastasin
korvisöö
daa
nb
oi
pidu
sla
sms
##äheda
##hõ
##sinud
##pidu
##ino
##inst
##mand
##nat
võita
naist
loomisel
##isatsioon
##ikaga
ühesk
heatege
##janduses
##tabel
läbipaist
juhtis
kallale
järgneb
õpilas
abista
autoga
lastekodu
koheselt
tähtsusega
##sside
katki
heas
võitlus
kõigist
mõeldes
piirangud
detsember
ohtlik
vahest
sõnumit
##pargi
kolmandal
jätkusuut
nautida
institutsioon
kriminaal
tõhusa
üheskoos
64
norm
pig
sw
voor
##uu
##mendid
##lusta
##semaid
##lek
##esinda
etv
vat
majja
##dile
##induse
inimkonna
põhitur
vajame
linnale
teadmist
raamatud
##meline
anname
nimetatakse
põhjuseid
jõudma
vanade
surm
leidma
##ikkuses
pääsu
väikee
arendajate
koguduste
päde
ärga
heina
meelelah
oskavad
põlve
pidur
tõsine
rakendusi
tren
lükka
1990
rajada
objektide
detailplaneer
pärnpuu
püüavad
märgitud
kreeka
pensionär
lingid
žürii
3000
spe
tran
##äit
##uv
##tage
##eng
magist
olem
olemise
medi
tulene
aaf
palusin
tööga
suurima
kohvi
tulles
viina
arvelt
##mple
kiitis
##dudes
vahetus
konkreet
##muuse
##bert
##bergi
##vastu
mitmekes
riiklik
vaatan
##ustasid
##lastega
leiame
õnnista
ametnik
järelikult
omavalitsused
mõnusa
lasteaed
pikad
seltskond
kogeda
loogiline
jumalateenist
täiskasvanud
osutuda
kilomeetri
olemuselt
vikerkaare
39
bu
g4
kis
kem
##ogi
##bet
##isime
##rabi
sepp
##staja
sauna
laheda
inse
omamoodi
##ndamine
##tunde
maakonnas
##seltsi
veelkord
190
seatud
nimekiri
kirikule
koolide
müüg
õiget
jagatud
osalemine
kuningas
poliitikud
määrab
tekitas
läbimõ
esindatud
lasteaeda
võimaldaks
direktori
portaali
mehega
looduses
lisandub
suhted
laagri
eelnõu
##kretär
kinnisvaramaakle
äsja
toiduaine
skandinaa
46
41
anu
##ute
##õbral
##àà
##alga
##ituste
mati
täie
muna
##peo
etteku
ülem
lugusid
viies
enamuse
päevast
lähed
##oolis
mõnede
tihe
##pokkeri
taand
parameet
tähtsust
##vesteer
vajalikuks
##umisse
tutvustada
praeguses
taseme
linnuse
otsast
rahvusvaheline
failid
langeb
tõsiasi
ametiüh
asukoht
##täht
##ikumalt
ettekande
kollektiiv
paulus
lobja
danil
kipuvad
matsalu
kompetents
43
annet
##nid
##hoones
##vide
##lemise
kato
##landi
##asa
##hanis
##mer
tuvasta
##kom
##koja
kassi
rann
koostatud
töötle
veo
asunud
##sides
##tod
esitas
õpetas
meeskonda
teiega
vajalikku
tavalise
projektis
välismaal
seisukohalt
ümbrus
asuv
paigaldatud
leev
varasemast
kaalut
näidatakse
puhtaks
geo
maksavad
sünnitus
indekse
##periood
tööjõu
märksõna
küljes
800
pist
uude
##äng
##kula
##saar
##müü
##matest
##isaa
##isiku
##ikooli
vak
seista
##kauba
##ndatud
##tum
eestile
##tsis
##tsii
käte
##pak
##ikaitse
lõbus
väljast
sümp
mägi
osaleb
viinud
veen
aland
tunduda
elava
näited
juhtima
teadmata
kauem
üldine
samu
koolid
paljusid
mark
neljand
hoolde
muuhulgas
avaldas
1999
ravitse
looduskaitse
sünnib
##oetust
vormi
##maailma
kergliik
otsingumoo
vibratsiooni
tarbeks
firefo
g4s
eina
ekst
vette
##pä
##leja
##info
##ell
##iserv
väli
##erida
##kogem
##ndamise
vallal
töötur
prog
##iksid
##ikaid
väljakutse
külje
##jateks
eluga
vastupanu
loend
toimi
muutma
##ositsiooni
##veres
liikumis
taastus
probleemiks
maailmale
kaitseks
eesmärgi
eesmärgid
##tustest
konkurss
faile
mõistuse
julgelt
praegusel
##hedalt
aptee
lühikese
meenutab
viiakse
tarbijate
esmakordselt
septembris
kodaniku
##isteeriumi
universumi
positsioon
tumeda
motiv
kommunikatsioon
sunnib
kuursa
delfiin
ana
nà
ohtu
tim
##tusele
##qu
teoks
kost
koja
##meister
meta
##ltsa
tähta
totaal
lät
põder
põltsa
neilt
##eerimis
lund
ükskord
ühendada
kasutajatele
viide
alam
vähese
kuulsin
arvas
vahetult
avalikult
tunnustatud
müük
probleemidele
tähendada
ettevõttes
laiendada
soovitakse
rahulik
eripära
parimat
avaldatud
mõjub
paigaldada
olulisemad
presidendi
välti
sihttur
##midt
##riikide
sõlmitud
leppida
veendum
vasak
juulil
keskerakonna
iisra
##sõiduki
##riteerium
munitsi
pisi
õed
õue
õhus
##him
##eal
##pl
##õit
##rüh
##jula
##ya
##datud
kuum
##ulnud
##utuste
väg
saamine
laur
ratast
üleüld
lõika
ühingu
jäin
toota
##ott
andes
##iivne
linnavolikogu
eksport
ettevõtlusega
viimases
sure
paraja
aitaks
tallinnast
ristil
riigile
hakati
##iseerida
paremaid
##tõr
alustanud
lenn
tasuks
tuhandeid
konsist
kombina
kulutused
sekundit
##partne
promenaadi
bud
filt
sò
##ux
##kter
##tamata
##vaga
kukkus
##ito
##ustik
vap
##gete
##kontse
meis
##ndas
keskse
produ
soola
peo
##veo
##tasu
ütlesid
ansamb
keemia
teenindus
koosseisu
võtme
silla
nimeks
kohtumist
kristo
kaasata
uurinud
autode
mänginud
kannavad
lihtsasti
mõistagi
##teenuste
toetavad
##juhtide
1998
negatiivne
liiguvad
päritolu
imesta
kataloogi
lahkus
büroo
riided
reformierakonna
perearst
cramo
58
af
cor
fri
iid
mosk
stu
von
õues
##misa
##ish
##ikuse
##ikor
##tera
##usüsteemi
##ituseks
##inet
selga
##ritele
samast
##kab
##sast
omab
##kujul
poes
näitle
##tute
vall
liis
loomist
##paal
roset
alatead
tarkuse
juhti
ühed
tervikuna
tiina
põhjenda
suudame
korraldaja
imelik
teisigi
terveks
lenna
mugavalt
##näge
sammud
jür
templis
kolmandaks
füüsilise
ilusad
haigekassa
teisalt
tunnistama
kaugvise
kommentaarid
suhete
valuuta
langes
luterliku
külalised
skaut
ühistranspordi
##juhataja
vanalinna
jäätme
harulda
oru
##obje
##stra
##mail
##aamatu
temal
sadu
siim
arutada
kõnni
##sar
muul
loomiseks
##ons
saabub
viivad
viitab
otsuste
toimima
##kasid
hakkaks
##kirju
kipub
##osf
ettevõtmine
orel
kirikust
##ilistest
torni
kandes
kujuneb
millestki
aktsia
##jatelt
autorid
moodustab
seisukoht
müra
plaanid
ilusat
saaremaa
arhiiv
aprill
taevase
##kaardi
metsas
kusagilt
##omanik
kasutusli
agress
##võrgust
mitmesug
kavandatud
aleksa
ebaõnnest
laiemalt
tuleohutus
territoorium
skype
aud
car
ml
mudeli
plu
##koos
##ralt
##struk
##jah
##ulist
koli
##ged
tuju
##kob
##utamist
##öör
##sada
suureneb
##ustati
väljakut
tulin
##ühend
erinevatel
peres
silme
karjääri
seadust
hakkame
kiri
##ositsioon
jõudsin
müüki
surfa
panid
kasvavad
pakkumise
kogemuste
osalevad
ühiskonda
klassis
kannat
##pere
tegutsevad
söög
juhil
mobiili
istuda
parimaks
analoog
laadi
vigade
küsitakse
füüsiliselt
purje
igavene
##hariduse
roboti
kokkuvõttes
peaspetsialist
pehme
varjatud
põllumajandus
bänne
propag
mölder
toodang
globaal
99
säära
##imad
##zi
##iss
##usk
kaab
tung
##kande
nähes
kütte
tuleneb
koostada
##ustaja
##ube
##alad
reserv
tegemisel
##vedu
kuulutas
kõigele
muutusi
seab
esivane
liikumist
liikmeid
hull
kohtumise
##orite
arendajatele
päevaks
läänemaale
südant
120
töötama
tutvustab
tähelepanel
sarnaseid
ostja
laske
tasemele
dokumendid
otsivad
pikkus
järjekorras
lennuki
mõndagi
püüdnud
ettekanne
prantsusmaa
ulme
##õnaga
raadio
munitsipaal
dista
ikoon
pind
##km
##mul
##oja
##ple
##ye
##idid
vann
##utel
##komisjon
safa
paista
lao
mehel
##utan
poisid
kasumi
##likele
##tuda
##orid
lipu
põlev
lõiga
sün
kasutas
viidud
kogunud
##puha
loeta
enesele
kulutada
##väli
halla
ettevõtjaid
koolitust
##järje
uurimist
kaitseväe
teistmoodi
deba
kujundada
hein
paarkümmend
##irektor
##fice
mõõta
mõõde
investeerida
reaalne
panevad
seisukohti
õpilasi
testide
##mäel
##mängi
sõbranna
kutseharidus
aprillis
ühistu
failide
saavutanud
saavutamiseks
oktoobris
märgata
nõuetele
sõprade
konservatiiv
okupa
javasc
ihu
moon
õu
##jusid
##öde
##setel
katus
vas
väsi
vähi
väsinud
inten
##iru
peatus
valikud
sedagi
suurest
puudega
loovad
veide
soodus
võimalikud
krü
saabus
kolmel
targe
ants
riigist
harjut
moder
puudumine
ootan
asjakoha
parane
tegime
ehitamine
sisemise
koguduses
mõtete
188
kaarti
##kultuuri
isikliku
paan
sööma
meeldivad
grupi
vead
kliendile
ligika
tõmbab
kaardid
kommunikatsiooni
sõrme
demokraatia
iphone
nikola
yahoo
700
95
lea
mnt
rul
voodi
##nimi
##delda
##main
##tamisega
##oodud
##vata
kanne
kaia
kuress
materjale
##stati
savis
suurusega
korid
luks
##duvad
viienda
##rdil
elujõ
elanikud
lähemal
muutmine
õpib
asjatund
müüja
auhinda
kerki
plats
##stumise
kannatada
hiljemalt
järeldusi
noogutas
artiklit
hoiavad
jaama
möödas
ravikind
tühjaks
aktiivne
nendel
vajalikke
küsima
tõusu
kirjeldatud
augustis
kümneid
pikema
mahub
kaaluda
kaitstud
loogika
märganud
etapp
lehekülgede
universum
walter
messil
hõlmab
diskussioon
tamrex
balt
õnd
##mused
##paar
##goog
##30
tehke
##uselt
##utä
suunda
##stamiseks
lagune
arvad
##kan
##utades
selleni
täidab
tööla
kirju
loomaa
toor
rahas
hobu
alamp
oskust
usub
pooled
vaimset
leidmine
selliseks
kaitseb
õiged
lihtsamaks
valdkondades
pakume
sündmus
edukas
armastavad
##oorias
väärtuste
väärtused
planeeritud
dokumenta
mugavam
##ureid
turism
##lepingu
kunstnik
jaanuari
töötute
veebruaris
vormis
punktis
veerandajal
##kadeemia
sageda
frame
keerukas
ruutmeet
peksar
hiera
imest
klast
ple
rinna
rong
##nist
##am
##dale
##daks
##itusega
vanu
väe
olemust
saarel
##nia
paga
##ingus
##ndab
valga
##itavad
muust
mujale
aast
toel
leiti
lehele
proh
neti
lõd
konstru
kraadi
ülle
hom
turistide
maksumus
perega
##anal
hulle
infos
taastada
mitmekülg
sisestada
niiku
autod
juhan
kujunes
kõiges
protsent
määratle
hinged
mängijad
imelist
firmade
võrdle
avaldanud
külastajate
objektiiv
tühja
kuulama
tohutult
lahkunud
liiget
tõstis
november
iseseisvalt
turniiripokkeri
kredi
lükata
maksimaalselt
keskkooli
peitub
lähtekoodi
silverlight
77
eu
kg
litur
##eksa
##pol
##vorm
##juse
##setes
##uliste
##istusest
koeri
##nduses
juua
##utamise
##ideti
tõstab
lõhku
võimalusel
kasutatav
vaadelda
kohtades
kirjutamine
taast
inglik
tutvu
kaitset
automaat
päevaga
mingite
##endiga
kultuurikeskuse
virtsu
läbida
ülesandeid
arusaama
süsteemide
järjepide
säilinud
##konstru
vahva
arvutis
##grupi
##oetuse
taevast
lähedale
##kaart
tabeli
##konto
südamesse
##protsessi
keskerakond
reformierakond
kokkulepe
fanta
ülesandeks
stsenaarium
aimu
ef
fi
iii
##pood
jahi
##vates
katastroo
##mere
jube
signa
##kanal
##sat
##itab
tõo
tõusta
sõidab
niipea
korte
leidu
##alade
üksikud
##istades
toodi
##ühis
parte
liialt
sealjuures
hullem
õiguse
##gudes
piibel
kristliku
##aliga
põll
hõbe
ohver
kriisi
arusaada
pühendatud
testid
ühesõnaga
##nõude
detsembris
tagajärjel
kogutud
igasuguste
kehas
vägivald
normaalne
riideid
vabalog
immig
inglitelt
likvid
##esindaja
des
mult
mys
spa
##hh
##kem
##mbi
##vor
##ces
##idena
##oogia
koduse
võru
majad
##eameti
olemine
##nile
##kama
##tude
näis
lätis
hageri
suurene
programmist
põg
##paik
põhite
kuskile
elan
logo
märke
liivi
ajaloos
vabadust
isla
sinus
soovite
soovinud
##oloogi
vallavolikogu
vahelt
elul
armastusest
kogemusest
189
mõistes
ametnikud
lihtsad
##kulp
tootmine
##kätt
äärde
rakendust
venemaal
salumäe
istub
tingimusteta
kontsep
hiin
toodet
häälega
sõjaväe
hädavajal
põhikir
universaal
novembris
optimist
sobil
piiranguid
arhitektuuri
##hääle
gert
sotsiaalt
rosetta
52
fik
kim
liiv
mud
susi
töid
##nga
##kinud
##mide
##püh
##lja
##60
##semat
##eldud
##elan
##ikool
kantse
koit
tuh
##utati
##imehed
küpse
alustab
altari
hap
hamb
##võrk
kirjandus
poodi
kohus
meedi
##udeks
viisid
veega
vabad
silmis
hakkad
asjaga
mõtleb
surn
tegut
aitama
marko
kinnitada
kinnitatud
noort
tugevat
niis
##ikkune
eesmärki
lapsega
kolmest
osalema
perekonda
kaarte
armastatud
kaotas
püütakse
äriplaani
läbinud
##jaam
hoonete
pakett
öeldi
##alism
rajatud
kaastu
liikumise
tempel
ammas
##vahetus
laev
täiendavaid
lasteaias
kanti
vältel
jaanuar
sõltuvalt
ettepanek
alternat
sõlmida
monit
arhitekt
geor
geograaf
põhineb
komponent
johanne
esinenud
korvpallim
jäetud
usuteaduse
tsentral
viitmaa
##lektuaal
niikuin
adek
emale
tò
uks
wor
##mea
##vin
##sioone
olümp
##eru
saadi
##nima
seemne
##valda
mõis
rad
rapor
##tsust
tõid
pron
ületada
vastuseks
vähemaks
arvasin
võtke
maksis
ripp
silmi
kindlat
soovide
tunneme
probleemile
tähendaks
marju
polü
euroop
tehniline
linnal
mängud
mõtled
ärkasin
187
##ktoris
helsin
poliitikute
tahtmist
püüda
puhastus
elektrit
dokumentide
windowsi
refer
püüdis
expo
##enteeri
märtsis
tabanud
väidetavalt
alkohol
pöördus
suitsu
strateeg
pilguga
ajuja
tudengi
kolledž
kolledži
erasektori
siiralt
protseduur
estonia
delega
##konverents
professor
niikuinii
54
bet
ima
vin
õõ
õli
##tik
##dra
##imal
temas
vaes
selgust
suitse
seesama
##liid
##rome
suurust
##kele
teagi
loot
##duga
ilme
eelis
##teraa
loeb
juhtimise
kalju
vabaneda
esitab
##likumaks
##rras
olukordi
kurs
pakkunud
saaksime
kõrgemat
teemade
katta
seadmed
ühtki
rakendused
igasugust
##tööd
##ntseeri
uskumatu
##cation
küüdita
valdav
##värv
pääsenud
igapäevaselt
liikmetele
proovile
##oloogilise
vormista
kohustusi
kättesaadav
tagantjär
prüg
miljardi
tarbijakaitse
kooskõlas
anonüüm
liberaal
##büroo
austa
ses
tho
vs
äre
šo
##ksti
##ssa
##ön
##ald
##eld
##ilia
##istuses
koal
vaht
majutus
##niga
lavast
##katse
kõhk
sellegi
port
peamised
##bar
tuletõr
põgus
##reis
võimalustest
vastutuse
##istamist
viibi
##rdus
sisal
##unult
press
avatakse
perem
nimed
minagi
meelis
ehitaja
ehitatakse
kogudust
kirikumu
teemaga
rahulolu
registr
meeldiv
külastaja
ütlema
oodatakse
praktikas
jünge
##ettevõtte
ränna
##pteeri
kinnist
##mõõ
toimuvat
ressursse
ruumid
kaotus
poolaja
arstid
kvaliteeti
##asutuste
teistsugune
kiivit
ostetud
intellektuaal
etpfi
ettenähtud
intensiiv
nikolai
deem
isu
müüd
oja
pingut
##ak
##oht
##otsi
##dri
##vusega
##lalt
##bla
##tena
##istri
##rahu
võlt
##ndusi
##sio
väidab
##idan
##kasti
meri
pop
missioon
##idese
ratta
##tuid
valib
aamen
leont
loodi
##regist
tool
enamat
uutele
##egselt
lond
päevade
kuulus
##ukogu
arvama
vaimselt
projekteer
koolist
sõnaga
seisus
kahetse
kristall
õigeks
kutsutakse
vaadanud
lehed
klassid
õppetund
olukorrast
ohutu
paneme
gümnaasiumis
250
eesmärkide
arutle
omadused
sõitma
toreda
teenivad
potentsiaali
naeru
kodanikud
fond
analüüsida
püüame
räägitud
visata
ekraanpa
orienteeritud
kaduma
eemaldada
tõenäosusega
rahvali
kättesaadavaks
regulaarselt
##mentaar
kitsas
wifi
firefox
dr
egi
lot
##umisest
##sas
##akra
##rä
##vaja
##itusel
##eritud
subje
seevastu
sakra
ministeerium
tööstuse
aastase
##ttevõtte
ühendatud
kasutajale
männ
viimaks
##otsa
kogunes
märkida
kesklinna
eespool
vabanda
##estaur
avalduse
puudust
##metsa
kiirga
esimesi
krooniga
tasuda
suhtumist
org
kurna
tükki
kaitseing
riigieelarv
pakkumine
kontrolle
korraldajad
kustutada
kaovad
##dangu
sarnase
aknad
hõiva
õppetunn
uudiste
kompile
vahendite
rõõmustas
politsein
kõneleb
##kindel
konkreetselt
##ikeskuses
madalam
teret
jõulud
pääseda
töötukassa
valitseb
kriitika
##firmade
##aatorid
korrusel
##toodud
uurima
mobiiltelefoni
##eelarve
perioodil
turniiril
hingesug
dimensiooni
ebamugav
jaapani
mysql
53
5000
paad
xml
##hing
##kta
##ola
##vuses
##jude
##bas
kaub
##laen
pau
arvate
##tiga
misjoni
naisi
##etus
palgal
tööpäeva
puit
põgen
##reg
veri
soojust
esikoha
võimaliku
igatse
põhiliselt
osakaal
##ung
hoolik
##suhe
tundmatu
preemia
teadma
vabane
maksud
##kümn
riina
kardan
täies
tihedalt
tunnistust
tunnetada
millises
vanas
tegelda
esimeseks
hinnatõ
aitasid
auk
ehitama
tük
uueks
mõistab
veebirakend
hüvit
täitma
õppekava
hommiku
senise
tuuakse
raskusi
augusti
materjalid
##vok
numbri
numbrid
liikmeks
##oloogiline
pettu
saadetakse
lõhna
sihtasutus
täiskasvanu
dollari
##ingimused
kavatseb
ekspon
kumbki
koosseisus
yout
oranž
kergliiklust
safari
ligikaudu
framework
72
##uuri
##mps
##mikus
##imas
##jelt
##lepa
##dama
jagub
jakob
##imus
vaikus
olematu
mega
##samas
täitu
tähelda
##tunnet
##ore
paluge
rekonstru
andke
##kkide
muutuma
eeskätt
mõnest
isiks
model
vaimust
võiksime
kirikuga
esimesest
##pib
##rilt
aeglaselt
pääses
paremal
möödus
hiljut
arendamiseks
pidamise
pidades
mängis
jagama
torn
##teema
paljudest
projektijuht
aken
imelise
hüpp
õpetajaid
##istasid
vähendab
jüng
täiendava
üritan
kujutab
kirjeldab
treener
arutel
##värvi
hädas
riske
puhkuse
office
korvpalli
kasumit
absurd
narva
minutiga
küünla
piiskopil
absoluutselt
ülimalt
danilov
teretulnud
hingesugula
aed
blu
föde
jur
kro
restaur
tir
vesk
##melt
##delt
##ùù
##taar
kukk
##itule
##ratiiv
##metega
seb
saamise
##kale
##katte
peavalu
##kiga
habe
kõikvõimal
##alai
maag
##iast
tänada
lisan
tervist
tervet
isikute
sild
halli
ettevõtjatele
põhjustab
##gudest
ristimis
kasvada
mured
eesmärke
kogemustest
majanduslikult
lapsena
projektiga
ametisse
valgusta
näete
investeeringuid
positiivset
##kindla
tugevda
füüsiline
madalama
ülikoolis
sõltumata
puudujää
##ehita
puutunud
pinge
ajakirjanik
schmidt
korruse
muideks
remonti
##panga
ajakirjandus
inspi
summad
prototüü
paigutada
##kriis
töökohtade
vabalogi
kadri
domeeni
hiiumaa
majanduskasvu
miikael
tütre
paviljoni
kuursaali
hierarh
leontine
piiskopilinn
go
lend
mc
ttü
##kval
##omi
##pur
##pendi
##duseks
##lg
##gri
##mahu
kuh
##aan
tec
teoloogia
tagu
##ndite
sara
saali
näg
##umma
allu
##tsime
teemast
##pat
võimalike
ilves
tagatud
nõusta
hoogu
märgid
piina
küsimuste
tegude
panka
sellisest
teineteist
möödu
tugevam
poolteist
kirikul
konkurent
piirkond
ärim
heit
algavad
muudavad
##pidaja
toetama
lasku
teostada
uudiseid
kahtlust
kinnisvaratur
vigast
positiivselt
##sõna
dirig
triin
schw
köögi
vallavalitsuse
parasjagu
promenaad
heategevus
fantaasi
fin
retse
sho
##sal
##ale
##omad
##pär
##õht
##bis
##cy
##yn
##tamisest
kade
##lasest
##lasele
mast
##stav
##ded
saalis
sanat
lasi
poker
sõdur
maakond
maakler
soomest
##oonis
##maan
ühiselt
eelneva
##itude
andmine
viidi
##imises
veet
hoitakse
häb
märki
##eldada
toimivad
läänemaalt
##külas
karda
jätkas
milliste
vanasti
leidmiseks
tähendas
majanduste
inimesest
tasku
asees
kontor
arengus
vajalike
majanduslik
elementaar
soovitab
söögi
rääkisin
haiguse
saavutatud
proovin
armastama
kahtluse
õpilast
dokumente
kvaliteed
makstud
##vahetuse
organisatsioonide
personaal
väärtushinna
ameerikas
oktoober
##oetuste
teenib
teenima
energeetika
virtuaalmasina
usaldada
vägivalla
juunis
tammsaare
stiilis
##seadus
areneda
##puudus
tõelise
tõmbas
seisukohast
juhuslikult
külastuste
##rengu
null
viidatud
tõenäosus
identitee
taustal
temperatuur
prohveti
johannese
radikaal
youtube
astu
##kita
##vos
##by
##lemma
katab
##imär
##urg
##meri
samaa
pale
mehele
poega
##likad
##endiks
##tsiis
hajuta
pallike
tööt
luu
üksinda
ühendab
kasutajal
eluks
kindlustus
läheduses
teadlikud
avati
##osas
põhjused
meilt
puudul
paragra
kursuse
pühakirja
lõplikult
tegevjuht
kandma
tähelepane
kirjanik
võistlust
võistluse
toetatud
ütleme
##kohad
hommik
ideede
##pilgul
kulunud
tohib
otsustati
valged
mõjutavad
##meelne
evangeel
valdavalt
toimuva
salaja
postitusi
käesolevas
##riikides
millegipärast
ajaloost
regiooni
mõistetav
hoolega
õudus
sektoris
kirjeldus
siduda
personal
tartlased
hollandi
miinimumpalga
ama
hüüd
kk
pl
pum
vita
##hma
##vd
##elus
##isena
kole
##riba
mare
##hange
saaja
##liini
valimised
##etöö
tulenevad
##endamine
leib
käsu
ülelii
maapeal
eris
toome
vaar
kõrgelt
vähesed
sots
keskkonn
vajamine
enesest
kirjutamise
saadakse
##toit
järgida
põhjendas
lugemiseks
õigused
vanamees
tegelik
kiiruse
ehitamise
külastada
ordu
tehno
linkide
ristitud
teadaole
##htudes
rooma
laiene
mõistma
ametis
ametlik
otsekui
code
ööl
artikleid
võistkond
##põle
tekitanud
##menti
registreerida
positiivse
riigikaitse
üritab
negatiivse
kinnitust
lauale
nuppu
postitused
iseloomu
funktsioon
mentori
oskuste
ekspert
integra
vabatahtlik
##klassi
htc
kilomeetrit
administraa
##finaalis
sõidua
metood
kvalifitseer
korvisöötu
skandinaavia
mln
lumi
reet
##hool
##ovi
##lle
##taot
##tavale
kai
##eemi
##itõ
taim
##uts
satub
##kau
nark
küt
toi
teene
publi
põrand
##ktiivi
kasutati
hooga
targa
koguma
elaniku
parla
linnast
karika
##kiriku
kiis
põhjuse
ingrid
probleemidest
andmetel
koduma
tuttavad
konkursil
mõtlevad
jumalik
arvestatav
##tiivse
lõppude
tahtmine
hindamine
hindamis
mõõdu
ostma
jõuame
taoliste
õpilane
valgustumise
värvid
investeerimis
kõnele
eelarvest
diplo
blogide
tsiteer
##põhja
tähendust
regiona
püsib
luterlik
tiibeti
prantsus
arenduste
kolmandik
positsiooni
indeks
##ikümne
suurusjär
##kriisi
anneli
##hanke
igavese
valimistel
player
kliima
volikogus
wikipe
põltsamaa
##teraapia
dalai
rub
torm
timo
##pinda
##tegi
kuri
##iseb
##entse
##raali
##riaal
##eamet
olgem
##vades
olendid
##koh
##kohti
miskit
valusa
allt
aastani
veoli
soove
ilmast
külg
peda
tulge
viisi
##egne
##suur
kõrgel
turgu
suurele
teadlased
lapsel
õpi
ettevõttel
põhjendatud
jõudluse
algselt
pange
õnnetuse
pealinna
noorem
ristimine
arendamine
roos
vajadused
##haldus
huviga
tahtsid
praegust
haiglas
tekitavad
kiirabi
teod
##meele
apol
segadust
hoidis
eelarvet
esimeste
##gentuur
õnnelikud
##konkur
edgar
takista
armula
lööb
informatsioon
operatsioonis
käivitada
üüri
väärivad
otto
köögis
light
ettepanekuid
lehtede
intervjuu
puhtalt
kalend
prognoos
väljendub
unikaalne
formaadis
##ülikooli
varianti
kennel
67
gaasi
limit
ohu
qu
vunda
##krist
##psa
##ic
##õnnet
##õnad
##buri
##uss
##iive
##ndil
raiska
vallo
##bab
toa
haru
puude
##onis
kõikidest
kohuta
vaade
vaatle
kogukonna
kokkuhoid
kinkis
koosoleku
##toni
sinine
kiit
tunnis
lugemis
algusega
##ikkusest
energias
market
möönis
lingi
sisemine
kliin
suudad
kutsuti
piirkonda
osalejad
jumaliku
dekla
mõistnud
heita
meelehe
poliitiline
põlva
##vilja
aktuaal
aknast
põhjalikumalt
veebilehe
hingel
1997
##mente
meenutada
väljendada
visuaal
millesse
turismia
detsembri
sõitnud
esmane
##projektide
september
aprilli
arenduskesk
nähtav
rõhutas
##ikalli
suurepäraselt
indivi
##protsess
##seaduse
niisugune
rikkal
päevadel
kooskõla
personali
piret
dimensioon
spämm
juuksed
samasugune
grupikalli
parajasti
helsingi
hoolikalt
keskkonnaa
regionaala
dra
kriteerium
sidu
venda
vista
õla
##menda
##pel
##rikas
##vusest
##ür
##majad
kaeb
saba
##kampaania
##utasin
##tive
poisi
rae
##itar
lähtudes
koopia
välistatud
##ustaks
loomi
asf
##maast
kong
kontori
osapoole
eeldused
##itsin
ülo
häire
kuulis
juhtinud
külluse
avamine
piin
soovitusi
sõnast
seisnud
mingist
##järgul
kommu
kommenteeri
eesmärgil
kõrged
toetuste
süsteemis
elekter
katla
##väärselt
reaalsus
vähenes
käsitleda
saadik
senine
tühj
##nädala
võtaks
inglitega
konkreetset
negatiivset
omadusi
servi
kontakte
käesolev
aitähh
schön
psüü
##teistkümne
trükk
muretseda
ie8
jooksev
tagasihoidlik
peterburi
nõuete
##likkusest
kapitali
soetada
spetsiaalselt
vastupidiselt
ajateenistuse
##haigla
diskussiooni
pressiesindaja
outloo
peatreener
faceboo
paradiis
iisraeli
be
eg
gri
leed
omista
pise
rika
wc
win
wik
##tlik
##one
##temp
kard
table
olevaid
##dem
site
##vala
##idetakse
näitus
##endile
eestlane
##kiv
palunud
tõhus
sõd
##masin
leina
kätega
##võõ
aastatega
järk
eelmist
kellaa
viik
viil
veest
##alune
juhtide
eneta
saadan
ootas
rasva
vallale
##tusena
kristuses
auhind
marika
uuringute
riigigümnaasi
leiate
jagamine
kutsu
kutsika
##ikohta
lastud
depres
usume
##poolse
tootja
tegelenud
lepingut
tegijad
põhjalik
internetist
jõuaks
analy
arengufondi
haridust
hoidnud
vormsis
##rkvara
testida
mugava
tuntu
tollal
palgata
pealtnä
reformi
töötajat
esmapilgul
sügise
data
lemm
defitsi
kohustused
##allkirja
jalgpalli
vestlus
uuendusi
põrgu
##ritanni
nõustuda
kosmose
lõikes
tekkima
meeldinud
preesterluse
jaotus
pälv
paralleelselt
palivere
thomas
regionaalarengu
78
bb
bit
econ
gro
kloo
là
ott
tv
##pin
##pud
##ieni
##jet
##fitseer
##leht
##tamisele
kamb
##eest
##enõ
##ituaal
##meelt
täida
omapära
poest
##ndav
##üür
teete
tööks
kirjand
##ped
vedada
asutatud
osapool
jõutud
andsin
oleksime
ülalt
haava
häbi
##ingule
tervita
riia
maksim
olulisel
vastama
vastasel
vastavate
##eeriv
sissejuha
vanaisa
##homm
jooksis
vaheline
##muusika
armastuses
suhtlus
ehitamiseks
sisemist
lõplik
energiaga
saaksin
osalejate
186
##torid
poliitilise
muudatus
hirmus
ostis
toeks
äriidee
võrdlus
loobuma
arusaadav
tingimusi
objektid
tolmu
meetme
osaliseks
##mõist
taevane
mahus
nähtamatu
prantsuse
vikman
kolleeg
kommenteerida
maavalitsus
lemmiklooma
##opol
##finantseer
vàga
##joneid
rüütel
kümnend
stock
sõjaväela
gunna
doron
retoor
ketta
taastusravi
agressiiv
wikipedia
psüüh
4000
59
my
omi
plo
vb
view
##nst
##ual
##eti
##vöö
##guste
##britanni
##majandus
jaht
##eele
##urt
##utusega
saades
saates
page
##utamiseks
kõlas
raba
liidus
tulekust
aasia
##bia
tõenda
suurbritanni
teades
üksjagu
kasutata
peitu
peidetud
viidata
alagru
targad
ühegi
##mpiir
joogi
muutuks
##tajaks
kalliks
##toime
perele
usus
karl
pilv
##lustes
avaldab
ilmu
samasse
õiges
kordades
jumalast
##ressid
vanast
unustanud
kahele
jutust
väikela
sisesta
kasvama
tegevusega
vanemaid
soovitav
lõpetab
raamatuko
praeguste
pidasid
trum
##jõu
mõlemas
täitnud
parimaid
kullamaal
finaali
finantseeri
arengule
meenus
lahendatud
esinevad
hindu
tõeks
magada
reegli
tahet
sissetulekuga
sümbool
kodanike
arendustöö
emt
uuendused
suhteid
orienteeru
närv
lehelt
tagasisidet
kodumeeskond
okupatsiooni
pronks
toivo
61
leer
trah
õmb
##mmast
##ror
##za
##sektori
##mant
##majja
##isev
tapa
##ndest
seljas
madis
olenevalt
##kordi
pais
##utasid
##umär
##umiste
##itaar
muda
eestlasi
lihas
palvet
koodis
tõestada
tööülesa
suurel
ületab
##alast
##alase
sügis
põhiline
realist
ilusti
saabunud
toora
eelista
hämma
praa
pärastlõ
järgnev
õpivad
praegugi
mõttekas
tallin
inform
raskust
olemasol
kohtun
inimeseks
tulemusel
kohalikku
noormees
mööbli
linke
asendada
õppi
õppere
lõpust
murel
kõrgemal
kutsun
laiend
kuuga
##mateks
osaleja
rasked
neljal
element
mõistus
paarikümne
ligipääs
praegused
isikut
hindade
lehekülgi
hüvita
hüpo
taolised
uudised
##platsi
ülesanded
eurose
##unduse
toodetud
riigilt
rahvusvaheliste
päästjad
turismit
##meelselt
makstakse
käesoleval
brauser
tsita
emotsioon
mahuka
sõnumeid
stipendi
chrome
##imälest
maavanema
põlvkonna
naljakas
inglismaa
veevärgi
##jooks
kvart
vaarpuu
49
skulp
tingimata
##mnes
##õnu
##rs
##guseid
##blo
##fon
##tamas
##iseseis
##ille
##istsip
##iiga
tantsi
##ndiks
##utusest
juub
suus
saamist
saamata
saatuse
##nig
lagu
arno
##kaits
##valgust
omavad
valid
##ikuu
hange
##biga
leitakse
puhv
välista
põlema
loodu
##sedes
ülemaailm
##iteid
vehk
vedel
maaga
asula
##ikaua
kohuse
kasutajaid
eelist
##rup
##päevade
otsisin
targem
kindle
logi
logist
teadvuse
riie
mõneks
peret
vastavat
varjus
esitanud
endalt
soovitused
tunnistus
tegelikkuses
kiiret
abivaja
stardi
vaatamas
plah
kõrgemad
suudan
piires
toru
##jutust
185
korraldas
kannatusi
tutvust
rahulole
pakun
täitmiseks
teisipäeva
finant
erinevatele
lühiajal
1992
planeerida
süsteemid
meenub
aktiivse
ootamatu
sõpru
##valdkonna
meetodid
kodul
teenusepakku
heakski
saatnud
suhet
novembri
käituda
asukohta
kogemata
mootorsõiduki
stiil
johannes
mõningaid
huvilised
ülalpida
##keele
domeen
rohuküla
teineteise
õrn
tennise
demon
paratamatult
kaldma
totaalkaitse
schwind
narkoot
apollo
63
ek
ere
fila
hig
hun
jud
pesta
pudel
tär
vel
ümma
##th
##hest
##vitus
##lemist
##lerii
##ikaas
kasta
kann
tend
tank
##utuses
mac
matte
oletame
valimisi
tõnu
neela
sool
asjus
##ikapit
võimalikuks
##inaid
üksikas
kasutamata
mänd
eelnev
jäätee
huvid
märtsi
küsinud
toimuma
perena
usas
järgnevalt
varustatud
##gramme
kordagi
aeglase
erakordselt
väikeses
blogid
energiad
õnnistatud
oskan
meres
##käig
silmade
##tenur
taasiseseis
hingega
mängivad
veebipõh
piirata
ütleks
1994
planee
investeering
palgad
hanke
täiendavat
nõuand
töökoht
lahkuda
nupu
tagajärgi
suurimaks
kaupluse
sundida
failis
##ontrol
iseendaga
rohelise
müüakse
püsima
rünnaku
hävitada
räägiti
brü
ravimite
frank
täiuslik
nähtus
tõsisemalt
põhimõtted
turumajandus
keerulisemaks
aastakümneid
kvalifika
aspekt
matemaat
hispaania
fried
stockhol
84
akse
ben
dvd
ih
th
##kea
##psi
##ping
##dise
##vesi
##bes
##aliste
##alaad
##tasa
võisid
taset
##ndusega
sek
sib
##kaup
##saks
##tun
valikute
tõele
neut
aastail
##olf
veter
asutuse
saabu
viits
vaatenur
veeta
märgib
läbib
nüüdsest
ekskur
eksporti
##laad
pered
karjäär
kindlad
avalike
vaimud
tunnistab
lugemise
taastatud
õpetama
##ilahend
andmeil
tekiks
tutvus
külastus
pealkiri
tüli
vaatamiseks
punkte
mängust
õigemini
majade
laialt
taotlusi
meeleolu
##kulude
mõelge
natukese
rääkisid
sotsiaalne
toetatakse
imelised
neljapäeva
taolisi
esindab
##aastase
kullapa
külastajatele
lühikest
hingest
ulatub
##visjoni
1995
käsitleb
lugupida
investeeringud
võtad
saarele
jõulula
õpetuse
südamega
##võimalused
tõstmine
reeglite
artiklite
kuuleb
emotsioone
kohtumises
lisandväär
käitumine
iseseisvus
väljundi
poolajal
koostamisel
kingitus
##klass
etapi
ajateeni
täiskasvanute
diagn
tartusse
brä
suitsuand
##haaval
##pilet
konsultant
huvilistele
vòi
valmib
eestvedamisel
tublid
topelt
ambitsioon
võidakse
kommunikatsioonimin
õppetunnid
62
cs
eka
fü
hmm
jà
ops
vool
õun
##kist
##susi
##mmas
##fti
##sekretär
##isal
##vamad
kange
##engu
##istusega
##ustesse
vand
võlu
##gede
##asu
sekka
##koera
suhel
##stant
samaks
sakala
##ööl
##ööst
##iroo
omada
omane
##ääst
valima
aare
suurenenud
soodust
##eerimisel
süst
illusi
eeltoodud
roba
kehv
andro
tänasel
vaatasid
eluviis
päevi
##ukoha
joosep
erineb
vabandust
uskus
isikud
järgmises
kipp
täiendada
ennekõ
ilmuvad
jõudes
pühakoda
ülesse
##keskkond
ettevõttele
hinnal
pikki
siiamaani
plaane
minekut
##üsteemid
massi
jaapan
võimed
elektr
laama
vähest
praktiline
käsil
rõõmusta
valmistab
uskunud
##kindlus
pruun
nõuandeid
spetsialiseer
tähtsaks
negatiivsed
jalakäi
kandidaat
##fail
liigutada
express
kriitilise
iseendale
käitumis
vabatahtlikult
tabelis
##õpetus
rahastamis
lähtuda
tõrju
christ
instituud
pelgalt
sõpradega
vastuvõeta
istungil
##gelane
loitsu
jõgeva
##kapitali
kaudselt
edetabel
konkreetne
hallata
surnua
analyti
hend
jp
pikkune
##hit
##sünd
##pus
##paa
##rõ
##rut
##riti
##vära
##view
##form
##idaar
##teo
##usöö
kurat
##ens
##illi
koka
##ustiku
võtte
taks
##sion
eira
seos
##kodus
##kodan
paju
pang
kõh
ran
##umid
##itamine
eestlastele
töötus
välise
välisin
##oline
##oonesse
üksikute
vastutab
ühiste
viitavad
##otus
##misväär
andestada
rahastamise
kellelt
juhtuma
läheme
toimida
siingi
kirjutades
vastand
##vusse
##ikudes
esitati
mõttega
avalikkuse
tunnistuse
õigusa
##itsioone
unistused
##hoidu
suruda
kahjul
kaasatud
hilja
lõpule
mööb
uuris
kaitseliit
kersti
õnnistust
meelel
seadusega
lihtsat
##nost
televisi
##figu
pidul
artiklid
toetas
pisikese
palved
##tööst
ulatu
vahenditest
hoiduda
väärtusega
vorms
tingimustel
evaku
ürituste
järjekorra
##ilistele
mootori
kergejõ
parimal
unenäos
punase
solidaar
üksteisele
skript
lisandunud
populaarne
muudetud
foorumil
pauluse
sattuda
tasakaalus
##korralda
resulta
tagasihoidliku
juulis
osutub
konverentsil
igaühe
pühendunud
magusa
pastor
transa
inspiratsiooni
sarapuu
ennekõike
3d
cd
kvoor
pria
rm
##tp
##ska
##sing
##mudel
##pind
##ustused
võidab
tahv
parv
arn
##sari
omadus
##ndate
lipp
sõites
puust
kõikidel
inimkond
lõõ
##maar
jõust
tulebki
nõia
kolmes
äratund
tänasest
ajalehe
arvo
kogub
turba
lisame
##vateks
kuulutada
keskmisest
koosolek
muutnud
terved
riho
##kirik
liikmel
kirikuõpetaja
tunneta
kristi
kristlik
taskus
allalaad
õnnetu
kaitseliidu
1500
ebaõig
taotlust
vajadusi
arvestatud
korraldatakse
##iseerimine
seadnud
kaartide
tavalised
##üsteemis
valdkond
##halli
emaga
ostsin
arengukava
oodanud
1993
positiivseid
täiendavad
kultuurimaja
##võistluse
füüsilist
koorma
kirjeldada
kantud
osalustas
##mõju
takistada
arvutisse
sõlmi
klasside
pääseb
##tarb
efekt
saladus
septembri
rõõmuga
hiirega
vihje
solva
ahvat
mentii
saadeti
partneri
kaotusse
leiba
külaliste
ideaalne
veebilehel
##nsoo
piirangute
raamistiku
organismi
aktse
pisara
sätestatud
toomkirikus
ähvarda
ravitseja
põlevkivi
kuressaare
doronin
aim
air
city
fx
hy
kent
ohk
sse
umm
##nte
##lä
##31
##inumb
kaan
kahelda
##esalu
##lang
suvi
##kavad
omas
omandada
##timaal
raus
näiliselt
valivad
liber
toega
palja
palves
##peten
ületa
esmaa
##uaja
ühing
##selts
eelmiste
heale
keld
huve
hoog
elades
päringute
joosta
tahate
##tajat
võtmes
kirjutavad
üldist
vastanud
kohaga
esitatakse
samme
##raamat
halvad
halvem
viimaseks
tunnustust
hinnatakse
hetki
kahetsus
margi
jutud
pühad
##reeg
noorsoo
lõpul
nimesid
eesmärgiga
tegevuses
piirsalu
katrin
soovitada
sobivat
oskad
tavalisest
paremale
põld
##teenuse
lasin
##meeto
lükkas
sadamas
üllatuseks
hans
rahvusvahelist
tänulikud
##koolide
keelde
treene
hirmud
nimelise
millalgi
pikaks
kosm
plaanib
iseloomustab
naerma
suhtlemine
aias
kompa
tsük
tellimuse
eraldatud
rikka
##perioodi
robotid
üksikisiku
eeldusel
veevärk
aktsep
ruttu
ebameeldiv
oksjon
printsii
tuvastada
einar
liturg
vabalogis
adekvaa
api
cali
dii
js
vilist
##täh
##vend
##genud
##bit
##foor
##40
##ši
##inal
##mart
##taga
##usal
kate
##imeet
##illa
tara
tape
##rich
##riiki
magne
vää
saal
patu
##ööda
point
kasvat
range
##imeid
tuletada
##ikutele
hari
koose
sõidavad
töölt
suurendab
##võtu
teade
proge
##ktika
veoa
kasutamisel
##ppide
reit
tegemisi
tooks
viited
tulude
ajakulu
tarkus
kogukond
lisamine
##arvam
arvamuse
teaduse
erinevus
lapsest
uskum
karmi
pooleke
esitamise
##hnoloogia
soovida
õiguste
samade
müüb
kiirusega
surel
novos
probleemidega
suhtu
suhtuda
postkont
teistelt
piirid
mõtleme
katkest
180
seadmeid
programmis
lõpetades
hääli
##kultuur
helistas
lõpptule
##teenistus
sotsiaalse
veebiserv
hoonet
eneseta
vahenditega
1996
objekte
tolli
esineda
huvide
kaugemal
privaa
instrum
õpetusi
püüdsin
keskendub
varasema
postijaama
tähista
##üsteemide
kommentaaride
spordihoones
turvaline
tekstid
optimaal
ajakirjanike
küllaga
parimana
rahaliselt
kruusmaa
vabadussõ
sorti
organism
nägemus
järjekordne
kalevi
katsum
kodulehelt
estonian
miikaeli
argumente
peremees
57
bor
gal
leeri
pinda
vot
wp
##pingu
##rem
##rendus
##dik
##jol
##formi
##yd
##alas
##ines
##elnud
##iklubi
kaido
##jaos
komme
komand
tahta
##asjad
väit
lauri
##iro
näivad
##ban
altar
##ikutest
##endamiseks
korea
kirjad
##luba
võimelised
ülee
veini
##oonist
luteri
väljapoole
eelmisest
eelpool
andmise
andrus
otsides
kõrgus
hätta
keskuses
liigi
maailmal
vabasta
oluliste
rip
karju
liiklust
põhjusi
vaimsete
mänge
seost
infla
käive
piire
kohtuda
##ikkusele
tulemusega
isaga
still
jagan
majast
piirkondade
nähakse
majandusliku
varakult
minek
soovitatav
##ktorid
otseses
hindas
söön
mängitakse
toetanud
hüppa
ellujää
õppejõud
teost
130
külastajaid
laansoo
bussid
sadakond
arusaamatuks
pikkuse
luges
tähtsad
paigaldatakse
kinnitus
kanalda
takistab
##eerimisega
kontaktide
kehtima
reegleid
turvalisuse
õlgu
automaatse
sissetuleku
kallimaks
ootus
muretsema
1930
kaubanduskesk
omanikule
sündmuste
salvestada
tõelist
##uruumi
arvamusi
1970
kanada
metall
päevalehes
eestvedaja
otstarbekas
väited
majanduskasv
kallasvee
blokeer
ukraina
põhiturniiri
ametiühingute
produktiiv
kaugviset
fikseer
meedias
novosjol
3g
82
aur
amis
bur
list
sas
ut
##hka
##pik
##õn
##õli
##guses
##ümb
##finaal
##cal
##map
##iker
kajast
kampaani
##ituna
kommer
maalt
suust
##deri
lamba
##ööri
##kuu
tulevast
miljoneid
palub
lehti
käik
##lugu
teabe
##peol
kõikides
järva
##nno
jättes
reba
rekord
reiki
viiend
##madest
##päevi
vaatavad
alar
osmus
enamiku
arvatakse
kõigega
kallist
##huvil
sealse
üldkoos
##ilisem
sinul
esitama
kiht
halve
moz
vaimsed
lugejad
jooksma
andmetega
erais
ristm
tegevusest
##ikomisjoni
toetuseks
taotluste
võrku
täpsem
kannatab
programmid
lepingud
valgusesse
tekitatud
möödapääs
värk
alustame
ohutus
##platv
##kohast
planeed
järelevalve
registreerimine
eelarves
palgaar
##kindlustus
rämps
üritas
võidelda
organisatsioonid
jõulude
tõdeda
##inimest
mainis
kaardiga
solv
ahju
##gern
konsul
kehtestada
könig
koolitusi
##likumalt
fondi
1941
lähtub
sündmused
##imängi
##iseerib
läänlased
minevikus
vibratsioon
vastuvõtu
presen
abiellu
teatri
võlg
eksam
konflikt
kalmistu
##oloogiliste
raivo
twitter
times
moskva
territooriumil
sotsiaaltöö
nägime
gunnar
disk
foo
ola
##nim
##kro
##sused
##ive
##graaf
##bor
##we
##xt
##inid
##investeer
##iklas
jaksa
kants
##ild
##kov
suisa
sirv
pajula
selleta
##orkest
##rohke
##etult
minister
koostamine
töövõt
korvi
##võtt
krug
toodangu
heataht
tulnu
nõutud
kolla
hoi
otsinud
kõrvad
kinda
pris
korralikku
kalm
raam
##umiga
usust
##vägi
##posti
soovides
ilmne
esimesele
hinnatud
##ituba
kodune
allingu
allpool
ehitab
##järve
##rank
##lisse
murra
arengust
poolte
kutsunud
katke
vajadustele
seadused
hindab
hõõ
##meeste
kavats
vaikne
ülesannet
õpilastele
tüütu
tänavune
tempo
tõlge
väljendus
kasutuses
konkreetseid
##päeviti
##mõiste
nõudlus
numbreid
kehtivad
versioonid
serveris
tähistab
tähenduse
meeskonnad
kuuluv
##täit
korteris
##omaniku
apostli
tsooni
veebileht
spetsialistid
lauapalliga
import
reageerida
eeskujuks
kaldun
baasil
igaühel
elluviimiseks
##õrje
aarde
##chard
wordpress
brow
swed
vaktsin
vitami
kloost
66
68
ban
eht
epp
far
geeni
hüü
kù
lor
pse
rus
õitse
##tliku
##kin
##swit
##pre
##imaks
##lustele
##ükk
##fs
##24
##sef
kamme
##imon
##rage
##neti
##utusele
##ritest
##ripti
kuiv
matuse
väsim
tugine
olene
##kohtu
insta
innu
##kap
##valmis
omandi
pot
valve
valisin
##emal
##kite
haye
kirikud
teatab
##para
maade
real
küllus
jõuga
nõmme
ajavahe
otsingut
##suhte
turist
elavate
pärna
päringu
rahastamine
juhtimine
juhtiv
parkla
korraldus
linnade
kirjutatu
justin
sinule
järgnes
##tsioonile
##versioon
##aalis
avaldus
koolides
##märki
tekste
start
uuringud
pakkumist
mängule
varaja
##entaal
ligipääsu
merel
mõistavad
sotsiaalmaksu
väiksemat
internetti
ääre
alustades
välisma
moodustada
olukorraga
##cker
tingimuste
valmistanud
positiivsed
laevad
mür
ringkonna
ilusaid
kanali
haigeks
ennustada
täieliku
kandidaadi
baseer
kontrollima
kommentaarides
miskipärast
kestis
oktoobri
##uuringute
ülesannete
kaotusega
loeng
transpord
ajalehte
kohviku
vaimuliku
##teerib
talupo
püsida
intress
taipa
loll
keerata
konsultatsiooni
veidike
põhimõtteid
ettevaatlik
eelduseks
härra
piletit
##platsil
##kunst
staadioni
suhkru
manipu
kõrvakla
##kokkuvõtte
lõbusa
restora
kemikaal
vasakpool
konsistooriumi
samaaegselt
amaz
lightswit
kommuuni
orienteeruvalt
arnold
pseud
76
bron
gü
kesta
mt
m²
ord
äril
üro
##uhinna
##hm
##adus
##pree
##vusele
##linnas
##50
##enu
võitsid
##ndega
olesk
laud
omadega
##ndama
##juhte
napib
muist
muusa
alb
tulen
##endamise
käiku
teatada
promo
maand
luik
##igo
##uamet
pooles
red
reha
talis
mäesalu
##otstar
robert
sisut
täname
veere
ajavad
tarkust
märkasin
##tusse
vastane
##osho
##lustest
lugejate
##päevaks
inimesena
asend
sisetunne
isamaa
pidavat
jagavad
näitasid
lastest
jumalikku
184
muudkui
vere
##kulusid
valdkondade
tekkisid
protsendi
huvipakku
praegusest
valgustatud
silmaga
kultuurimälest
väiksemate
trend
paket
bussis
##atch
##pilti
vanuses
väljaar
tervisekaitse
rahuvar
muuseumis
uksest
rasket
##leping
õnnelikuks
õpetust
##eerimisest
numbrit
seminaril
parandamiseks
pangad
traditsioonilise
tulevase
rakendamine
klienditeen
kvaliteediga
ootused
definitsioon
olemasolevate
meistrivõistlused
##dokum
odavamalt
riskikapit
niisugust
impor
märkimisväärne
publiku
prognoosi
smithi
vastuolus
ettekanded
rööv
bussili
facebook
revolutsioon
maailmasõja
jäädv
mihkel
mutso
##infot
voorus
vägisi
veideman
põhikirja
mudilas
tuletõrje
subjektiiv
sanatoor
83
aas
audi
aeda
emad
gps
ivar
jes
lendas
shu
ämb
##pet
##rul
##ride
##cle
##cht
##tavas
jagas
##imisa
##iige
selgem
##rib
max
olnuks
sukle
##likel
peatada
näpun
##orf
##kima
harv
##pausi
##eerides
##eeriti
võimalustega
erman
sünk
##dusa
ajama
hoides
loha
loss
sokk
toimuda
ekspor
maksut
järgmiste
harjutus
ilmt
juurdepääs
mõttel
müüri
hinnapakku
tähendavad
panustada
orbi
koolimaja
muru
õigem
##kõne
##dustest
kogemustega
õnnistusi
##ilistes
raskeks
##teede
võrgus
seaduste
programmide
tasavä
heliloo
kaotab
mereli
##käiku
mõistan
paastu
ööd
muudatuste
eek
suutsid
suutsin
kiita
õpetajat
täitmine
venekeel
140
advok
toimetada
loobunud
arusaamist
galeri
astub
astunud
hiinas
##nergia
materjalide
nõudis
keskendu
veebruari
tuulepark
statistikaa
##niiril
elanikkonnast
auhinnaraha
arenduse
trüki
uurimuse
1940
kolmandiku
uudishim
sündmusi
tarbimis
##fondist
patri
meetodite
eksami
kokkusaa
paberile
väiteid
kòik
turunduse
illustr
prioriteet
põhiseaduse
andmebaasis
seksuaal
väljastpoolt
töölaua
põgene
monitoor
korvpallimeeskond
lotman
kergliiklustee
demonst
schwindt
analytics
kentsa
kammerk
näpunä
73
bensi
dik
pc
pim
rin
šve
##efe
##kää
##sh
##mena
##ph
##rusel
##ction
##letud
##mari
##ikse
##teh
janu
kuuma
##aag
##aasis
##jail
tegusid
##itusele
##nate
varal
##lat
##riumi
oludes
##detud
pae
lasti
poiste
peaga
valikul
naida
küber
eestiroo
liini
libeda
tuled
toht
koondada
töötav
suurune
looda
##iteks
väljapane
##iand
osalesid
##matusest
sisuga
heate
peksa
nõval
loks
näitena
suuremas
märgi
küsitud
muutusid
riiul
eksinud
varb
kuluta
põhjustada
avalikku
soovist
ookea
vanae
unistus
huvitavam
kaheteistkümne
##aliik
ehitanud
orja
##järv
möödub
lahenduseks
isale
juhatust
##palve
platsi
lubavad
kontrollis
kujund
mõistliku
töötades
naturaal
cow
hindamise
sarnaste
haigused
rahvaste
lähenemist
mängijat
suutelised
puhata
imelisi
parimate
tullakse
moodust
laager
segane
hoidmine
planeeri
otsitakse
täiendavalt
otsustama
rüt
micha
üritavad
paigaldamine
ometigi
lahkumine
koeral
määruse
suurimad
näidet
raudte
##õigust
kaugusele
expl
millekski
ühiskonnale
ahjaa
kajasta
lilli
usaldust
skeem
rõhua
kriitikat
##kesega
sidet
iseseisva
##kontrolli
arvamusloo
koolitused
kategoorias
kompeten
kaitsma
taeblas
ie9
ajakirjanduses
jumalateenistus
diak
meistrivõistlustel
kremat
##hääl
voolab
rühm
##inimesed
tänaseni
tegelane
teoreetiliselt
etpf
tennis
fänn
##koerte
daami
aafrika
taandub
savisaar
##analüü
korterite
olümpia
müüdud
pedagoog
outlook
presenta
ilmtingimata
eve
mea
riku
upp
vlad
za
ümar
##upi
##tra
##sor
##mü
##muses
##piko
##vm
##vent
##voog
##lü
##lustada
##bist
##semate
##inte
##tavast
##tajatele
kabel
##imer
##lahend
tappa
satuvad
pad
areneb
##katal
naudi
napilt
##umä
liikudes
niiviisi
lehes
##ustamata
neiu
##viil
##alaste
asso
erit
ühta
keila
andest
##nuid
haaras
tundsid
toimis
toimusid
avastada
##matuid
##matute
riigia
edastada
maksmine
järgneva
sean
pilves
annanu
vahetu
kirikukogu
õigusi
alguseks
müügist
piird
kohtusse
stardit
oreli
postime
postimees
väiksed
uurimis
asendus
kaitses
arendamisel
õppes
õnnistus
täpne
mõistmine
ametliku
tellis
##hall
jalgu
õhtusöö
tõsist
proovime
armastav
reaals
reaalse
reaalsuse
##võimu
pakuti
1991
õpilase
mugavamaks
laulda
üritusel
##kindluse
##kindlalt
laual
küsige
võimaldas
moose
koormust
olulisemaks
südametunn
numbrite
kontrollib
traditsiooni
igapäevane
religioos
konkurentsivõim
veebruar
ressursside
##vabaduse
noarootsis
elusti
##kontrol
nägemine
seinad
tabelite
koolitusel
autorite
leiva
jooksevad
inspe
##vooru
jalgratt
preest
passiiv
box
haldamine
tüdrukud
laekunud
klaas
##isõnu
kotka
matemaatika
viletsa
motivatsioon
testamendi
##ikorral
##mängija
luksus
turismiarendus
schönberg
ohkas
stillver
##preemia
mereliilia
explor
87
96
97
bc
feng
jeh
lis
mista
rendi
##äht
##ngel
##uke
##uch
##ttis
##sur
##auto
##mon
##musega
##mmet
##proo
##gudele
##ze
##mana
##mark
##vari
##ksite
kael
kara
kattu
##lar
##utuseks
majuta
matt
##kohas
##kay
##kaja
##valik
##valge
omand
randa
näpu
naistele
allas
algern
leo
leita
ettehe
##onid
maakonda
lõigu
##igur
##ppis
ilve
eeliseid
heast
minuni
eluase
hoolt
ajanud
otsis
elasid
kirjutasid
pür
usul
vastavaid
##iliseer
poolele
kivid
liikus
jõudlus
probleemiga
vallad
abivahend
kohalikus
kohalikke
riigihanke
stressi
euroopast
tegevusele
kõrget
majanduslang
doktor
mõtlemist
vajaduste
usuvad
##päraselt
rahuliku
helge
tootmist
protsend
lõppkokkuvõtte
silmadega
söönud
abilinnapea
akende
hingele
saavutas
ostnud
toetudes
äärmus
muusikal
äriplaan
kolmeks
##jõudu
täitmise
õppetu
##jaamas
ulatuvad
väärtusi
sadam
sõiduk
üritusi
hansa
täiendavate
otsustavad
ränd
##punkte
turuosa
füüsika
raskesti
kujutatud
koerale
omaduste
tunnistan
postituste
##võimet
otsustasid
iiri
sundvõõ
argumendid
liigne
kärb
lähedaste
##maailmas
##väljakul
fotod
sissetulek
transport
1980
osutunud
##joones
##materjali
õhuke
sulgeda
ajutine
ajutiselt
konkurentsis
##energiat
ülemineku
sertifitseer
töökohad
austria
värskelt
loetles
ebas
märkimisväärselt
praostkonna
situatsioon
tamrexi
operaator
essee
revolutsiooni
maanteeameti
restoran
hooldekodu
aleksander
javascript
##mainitud
publica
matteuse
kooselu
annanuustik
81
flo
klo
ny
tfs
unu
v6
vet
##kli
##sv
##prin
##iid
##veer
##šakra
##lei
##idile
##data
##oosse
jan
##vama
kata
kang
##imir
teos
##ilm
kose
väära
seriaal
##stamisel
media
kõnel
peatub
minge
tulekut
pall
sedasi
suurelt
kirjandust
##ustamis
neur
##onil
##ited
lõike
väljaõppe
eriliselt
süsi
reost
osast
##miskaitse
jõgi
##ruumis
kokkuvõt
kuulsa
ante
ühekord
koosolekul
avar
##ntne
kirjutatakse
sealsamas
kohata
kohapeale
##kirjuta
##ritel
juurdepääsu
infor
taavi
survet
hinnast
auku
margid
stard
noortel
möödudes
linnud
tugevaks
õppis
##keskkonda
energiaid
õigeusu
reaala
südamel
loomingu
piki
kuues
mõtlemine
ettevõtetes
ettevõtetest
lahingu
muudest
tegutsev
helista
tulevikust
sellistel
##reerida
##loom
järeldused
haiglasse
##teenuseid
proovis
mobiilse
veebirak
hõbeda
##jõe
##jaaja
hooned
entusi
tüübi
##mägi
tehnoloogiate
liikunud
uskuma
riigik
hank
sajandist
tervisele
küsivad
lennujaama
blogosf
hiire
sügisest
kohtumisel
tehingute
kombeks
india
tellitud
##täna
kaunist
suurepärase
treeningu
iseloomustas
ettekannet
erinevused
ekraanil
##voolu
mvp
kapital
haarata
lapsevanemad
publik
##päevadel
näoga
igaveseks
##rikuu
protseduuri
tagajärgede
nälja
pälvis
lapsepõlve
usuteadus
saitide
käibemaks
peatreeneri
virtual
põhiseadus
vajunud
kritiseer
dialoog
##inspektsiooni
maleva
väikeettevõt
vikerkaarevärvi
sünnitusmaja
distants
hingesugulane
föderatsiooni
##kvalitee
fantaasia
palesti
füsio
robam
mistahes
900
distsip
fle
feed
has
hor
je
ly
messe
udu
##unde
##ec
##ssel
##sport
##spetsialist
##õl
##sto
##oodete
##vaimu
##eeg
tech
##ence
##ilmas
##ustusi
võti
##lae
mant
##idad
segu
intu
medal
##utava
##ööde
ray
raisa
##ndamist
näi
##tuha
valimine
nahk
naisele
küps
##kiht
total
koostamise
##ikate
##duma
##inast
kasutamisest
pele
viimist
rahvaa
alata
üheselt
liigas
kirjutad
perel
karin
varga
ettevõtmist
liiki
##potentsiaal
lugege
lugejaid
käies
asjana
taastu
surmast
kaksik
##jasse
maailmaga
allapoole
tuttavate
kurba
erakindlust
riikidest
linde
siseneda
üleskutse
kerkis
kasvataja
automat
autosid
nimeline
lastekoor
peen
kogudusele
mängisid
energiast
##palgal
read
toetused
ebamäära
osalejaid
päri
##stuudio
kuniks
heitis
võitjaks
lahke
tähelepan
selget
tegija
suuteline
160
väiksemaid
mõlemale
netist
välismaala
moodsa
tõenäoline
##ministri
võõrad
võõrast
##menet
kaast
innovatiiv
kõneles
edasimüü
##jusin
pealtvaa
visna
põhjamaade
koormus
##nõud
teisisõnu
lastakse
magamist
väärtuslik
ettepanekud
sundteenistuse
konkurentsieel
imede
saatma
##oloogilist
visualiseer
emotsioonid
rootsist
bussiga
leppima
##harju
phot
klavia
tõlgendada
instituut
taimed
kuvatakse
##pileti
wap
hotelli
visioon
##tasemel
mehhanis
teavitada
soomlased
peatuda
##koguduse
##festivali
kompensa
variante
motivatsiooni
traag
ainulaadne
ärgates
kinnisvaramaaklerite
katoliik
väärtushinnangu
prantsusmaal
facebooki
pealtnäha
aktsepteeri
olenemata
vladimir
ühtaegu
sundvõõranda
79
austust
der
fol
hoones
krah
lon
ote
sven
uku
yor
ärite
##uku
##hnu
##pöö
##pressi
##vett
##üt
##ctor
##elist
##tare
##udid
kam
kandi
kura
##itult
##istlik
võideti
##lanna
##erii
##kojas
suva
sarv
paketi
omaenda
##tile
##likat
raporti
valitakse
##umust
eestlastest
tuletab
töötatud
teave
lootuses
neoli
lõhn
##inaga
igasse
##ooniga
kasutasid
reb
viiest
osata
tagamiseks
sisust
peaasi
nõmm
olekski
eluaasta
otsusega
otsustus
enamusel
tundes
arvanud
pargi
siinse
teadlaste
terves
avane
eksisteeri
karva
järgnevad
##kirjal
müüma
müüda
huvitavaks
seisul
kiirlaen
kahjust
hetkest
rõhku
pangas
kurt
##ulaeva
uurimine
pidamine
õppimine
firmat
laias
laialda
mõtetes
meeletult
minnakse
soovitame
sarja
erivajad
lepinguid
paadi
masinas
haiguste
rahvusliku
hüva
admin
reaalset
paned
pakutav
##fone
rajamine
ümbruses
tuntakse
laekus
üritanud
üritasin
nõuavad
##võistlus
kasutajatel
jaanuarist
liitunud
porta
voolu
nurka
nähtavaks
tähenduses
huskyde
näidatud
kombin
kohustust
seisavad
ajakirjanikud
##buss
kellegagi
arstide
vasakul
##klassis
aineid
1939
versiooniga
administreer
meditsiini
klaasi
põnevat
##bilita
kontserti
hiilga
initsia
kihelkonna
filosoofia
twitteri
olemusest
paanika
tsentraliseeritud
võlts
trahvi
rangelt
shui
michael
jehoo
lõppkokkuvõttes
visnapuu
ara
mp
ostab
sent
tö
uste
vent
##püü
##palu
##ius
##lga
##idis
##gaal
##vaim
kanu
onu
##aatorite
##ilisse
kodud
##rajal
##sib
eich
##gua
maist
seed
siga
lamp
arutas
sellelt
tähel
tähed
##tio
##ideta
valv
naviga
##itava
hannes
kära
asjaaja
ernst
kasutajas
##isteks
viite
külalis
jõukoha
keht
tuld
kolida
huum
##lusse
alaeal
##ühendus
suurejoon
küsitle
avanes
##tsiooniks
eksim
maksnud
riis
kardavad
singa
piht
##eeskonna
tunnetus
tegelase
##oloogid
##oloogias
tegur
autent
aeglane
##utusse
erakorral
linux
ruhnu
jumalalt
##väärse
lahuta
varemgi
sündmuse
poliitikas
lepingute
sööb
ööpäeva
hingede
kiip
toetamise
toetamine
ääretult
salva
välismaale
kompro
kahtlus
galerii
kuusk
kontserd
reegel
tungi
uskuge
üritust
valget
üritatakse
küünal
ennusta
formaat
unenäod
liiklusoh
##poliitikat
kellegile
##oloogiliselt
parandab
taevasse
usalduse
hõlju
õlle
lähedased
käitumist
mustamäe
statistikat
ehituseks
tööandjate
kohalikele
tõlgenda
spetsialistide
vedanud
julgenud
##kohtade
nõudeid
kartma
käitumise
aruande
veider
ajateenistus
organiseeritud
metalli
konflikti
infrastruktuur
tegelased
ignoreerida
andreas
geneet
mainimata
meditatsiooni
korrektselt
profiil
kliki
seiklus
maakleri
protokolli
subsid
trenni
sümpaa
vormsila
resultatiivse
69
93
aid
col
ey
ig
kà
mos
sö
sut
smart
war
yks
##numb
##saad
##aduse
##mut
##oper
##direktor
##baasi
##far
##qua
##inist
##mah
##maht
##ikot
##vatud
##ilik
##istusse
##iigas
##ndused
##ined
selguse
laenud
kõhu
##kuula
raport
##imetsa
alistas
palli
korista
propor
üleand
##paigas
iseära
maakera
##ikale
kasutad
##itses
meiegi
sisimas
jõule
vaataja
ajaots
##sell
##puude
linnamäe
läänemere
pooleks
kohanud
endist
tiim
##idiga
##olev
tunnel
tunnustus
puudumise
küsimuses
algkooli
müüdi
kahekümne
panus
aitame
##elamu
kurjuse
erakond
riiklike
blogist
lõpliku
näitama
kutsume
ebavõrd
õnnistuse
ühisgümnaasi
korraldama
korraldavad
korraldamise
korraldamine
kannatuste
selgitama
veres
helistada
osasid
##stasid
ostmine
äriühingu
alustama
kõrvalda
olukorrad
hoidmiseks
euroraha
värve
tasuvus
ühenduses
üritused
kolmandas
võimaldada
vabas
nup
##keste
tagajärg
portu
kontaktid
##võimalus
liiklusõnnet
versioonis
serverisse
punktid
turvalisus
kohustuste
iseseisvuse
puhtad
##väljaku
süüdistada
##serem
ümbritsevad
reisijate
kulutuste
üpriski
sünnist
laskma
nõrge
omandanud
diag
kurbas
lehma
summat
tõusevad
intressi
glob
scott
lähenemise
planeeringu
ettevalmistus
pimedas
##mendis
istung
ettevaatlikult
platvormi
pealkirjaga
tartlaste
fantast
kummarda
foorumisse
tagajärgedega
õrna
aarne
missugune
profiili
aretuses
kisub
##politse
referend
##kümnenda
hierarhia
üleliig
katlamaja
pälvinud
pärastlõunal
ümmar
brüssel
suitsuandur
rehabilita
photosho
auko
aparaa
gustav
hiline
ine
üla
##kusest
##rõõ
##viku
##gla
##ws
##zhi
##aluse
##tants
##iksite
##teha
kaad
kannete
##jata
##eno
##entsiaal
##ulikud
kola
##gevust
##utis
##utur
maetud
segi
saasta
saku
satel
pagan
laik
lava
lage
araa
ingram
kõndis
sellekoha
kask
##ndaal
peamisi
naka
##itama
eestil
korrup
käel
käär
##kto
##uber
sootuks
süle
kohustatud
##ppida
##itseeri
##jatena
inimeses
hooaeg
ajavee
##ngut
##ution
kogune
päralt
hämm
inimestelt
kuulunud
räägid
keem
teenistus
enesete
kirjutati
saadav
riike
usutunn
vastased
pill
kulda
##pordis
##portaal
halbu
mõttetal
raskel
sureb
paranenud
vallast
majanduses
tehnoloogi
vaatamisväär
teistesse
peene
mängur
poolfinaal
õigeid
kuupäeva
lapsela
piisava
dema
kontrolleri
##väärt
vajadusest
tegutsemise
erialal
poliitikat
meistriti
massiiv
järeldusele
lähenem
armastad
imeliselt
##ressur
hüvasti
salvest
istuma
avaldamise
##ckley
kriisa
seisukohal
##visjon
vähenemine
praktilise
üllatusena
ravimeid
astmel
tehnoloogiat
evangel
##vahetust
aktiivsed
täiendav
olulisemaid
nupp
puute
saaremaal
leedus
formaal
liituda
koguses
##ormatsiooni
brauseris
funktsiooni
petlemma
ressursid
##haridust
atri
##väljak
korterit
kaotust
puhkust
##pesu
võinuks
lõppedes
olemasoleva
juulist
jälgib
heleda
kahjulik
kokkulepitud
berg
abielus
patsient
lülitada
värava
häirib
puuvilja
kukkunud
partnerite
paigaldus
toonitas
kyll
kaitsevägi
mihkli
mediteer
sagedamini
võrdlemisi
kimb
ajujahi
administraatori
neutraal
evakua
kultuurimälestiseks
rahvaarv
eichf
71
age
css
eng
free
fio
hee
iva
pus
salu
äris
##hite
##omeet
##vikus
##vood
##sear
##inide
##mates
##ikli
##ikesi
teste
##istusele
kogust
##ndes
##utide
##ric
olemist
suud
suhu
sukel
##ingust
mõnd
omafinantseer
radi
##oru
##orga
kütust
aasi
tos
hamm
palm
sõitsid
tööto
protest
programme
##isaal
lõbu
väljaku
konfigu
põhjas
##ian
##mbid
rei
saabki
tootega
eelistavad
külme
headust
jõuti
jõutakse
##ungi
uutest
##egse
koguneb
elamine
päringuid
märt
juhtimisel
teenind
linnades
võtmine
tervendada
avamisel
richard
##ulemuste
piloot
võimalikke
abstra
hallik
viimasest
viimasele
liikluse
nimetab
##oleva
võiksin
õiglane
õiglase
asjata
##valitsuse
surnuks
paraneb
node
augu
kodumaal
ehitamisel
kurssi
##ttide
kõrgemaid
hinckley
loomkatse
näitajad
firmas
##ikoht
laster
ruume
osalemise
ärri
töötajatele
meeletu
ametit
hääled
usuõpetuse
selged
helsing
sündmust
poliitiliselt
leheküljelt
võistle
mängijate
##msalt
meeldiva
reaalses
##meeter
alustava
alustamiseks
seniks
tüübid
##lasena
lahendamiseks
tõlk
vanim
ülevaadet
nendesse
pikkust
##uetega
meeldetule
kaugemalt
vaevu
blogisse
menüüd
pahataht
##korrusel
ideoloogia
trio
servas
mainida
vihm
saatana
kroonist
##ehitus
käitub
mahukas
mustad
opositsioon
süüdista
kaotuse
tugevamaks
kujundamisel
aurat
jalgsi
sekundi
jälgima
asutaja
riskid
võrreldav
pühitsetud
vibratsiooniga
taipas
seisukohad
uuemõisas
lindude
raamistik
organiseerida
juunior
üleminek
arstiabi
irli
inglismaal
hobuse
content
turumajanduse
perearsti
harmooni
ainsana
tootearendus
bürokraatia
jalgpall
nimistu
spekula
katoliku
progress
tagantjärele
põgusalt
##mõõt
egipt
diagnoos
meare
otepää
fione
91
aha
aku
emme
hunt
kile
nda
pö
put
stab
voog
##kitse
##lli
##bele
##fli
##funk
##cks
##cti
##teele
##ooja
##imule
##ulas
##ulisi
##ustu
vaene
##utut
maise
##hard
tuu
##ery
sulev
saatel
argi
##öök
mõj
mõjust
##tigi
##lication
##ndatel
##emi
eestlastel
libra
hard
tööhõ
käidud
##võitu
väljal
üleni
ülevalt
##paiste
esitle
erilisi
##maades
jäli
reda
tookord
osariigis
osatäht
##dusid
eluvald
##ngha
##puudega
märkas
kunag
kaasraha
muutmise
muutuste
muutmiseks
eneses
mõnegi
saadavad
vabariik
usin
##loa
kohaks
##gusse
peabki
ettevõtjale
viimaseid
põhjend
hulku
küsimustes
ootasin
käigu
käimas
käivit
samale
unistuste
hetkes
rõhu
jälje
tasutud
elisa
##bernate
sellisele
kodulehe
suhtlema
kohalikule
ilmaga
erakondade
noormee
kaitsevad
##ustasin
pidage
mures
muresid
kontoris
peep
##külgne
jagati
jagasid
tähtsuse
spir
fakti
kujundus
arvestatakse
kannatavad
paaril
ettevõtetel
otsene
koostööpartne
oskagi
tootmiseks
##seteks
kirjaniku
hoiame
##teenused
juhiks
hirmust
registri
lasna
##majade
palveid
##pealinna
arusaamad
ravida
rajamiseks
##varaar
vähendamine
kvaliteetse
edaspid
esimestel
keskkonnast
lugude
termo
vältimiseks
pöördunud
täielikku
liitumist
ülikoolil
toimuvast
vooru
serva
tõstmiseks
töötuid
videod
kuulen
imeil
kaalub
tsiviil
sõnumid
imestada
opositsiooni
eksperti
ajakirjaniku
vabatahtliku
vabatahtlike
saarte
efektiivselt
tabada
nutitele
vaevaga
terav
terava
naeratas
pidasin
1944
kodakond
seitsmes
apostlite
ajakirjanduse
asetäit
edukaks
esmaspäeva
laagris
käsitletakse
arvamused
##ingimuste
süvene
kompleks
pikaajalise
elanikele
frag
soomlaste
piiblit
hauatäh
kõrvuti
kaasaegse
tüdruku
##jäl
klassikalise
minimaalne
suhkrut
pisarad
peatükk
kandidaate
problemaatiline
ausad
eduseisu
toimetulekut
##muuseumi
lähedalt
ratastooli
ansambel
lennata
ravikindlustus
pagana
katastroof
hädavajalik
kirikumuusika
rahvaliidu
paragrahvi
kastani
diakoonia
88
ali
ekse
nhi
pingel
ui
uin
vika
york
##nelda
##tise
##här
##ken
##sd
##oman
##iha
##joone
##üst
##alle
##ingast
##taan
##ikol
##oopia
jazz
kasti
kuude
tegus
##ilõ
##nami
##assaa
majutuse
olevast
saatan
papa
##ird
mõr
pomm
raul
rajal
ratsionaal
##ory
##jumala
lip
lite
tole
touch
koole
teedel
tööotsi
suurde
käin
põles
##pank
järeldada
erist
eristada
süste
##uameti
ühised
jätavad
reima
viitas
meestele
jääme
äratus
humani
vaated
hoidu
otsin
olengi
juurd
häma
anta
anni
linnamajanduse
avamist
püsis
vabastada
karistada
piil
endisest
ettevõtjal
ilmutuse
puudulik
puudutavad
käiv
taastamine
algkool
müügiks
##hoia
kiirust
noa
leidmise
kinnitavad
ehitas
ülespoole
kasvav
lõppa
murda
##kõlb
reaktsioon
jaganud
mingile
roosi
laiendus
##ndusse
suunab
arvestanud
varastatud
hakkasime
##ikulud
ühtse
usuga
versioone
##pärase
tegutseva
kolmapäeva
kehakaalu
valgusega
silmakirjal
haigust
võistlusel
kultuuris
lähitule
mõlemat
veebist
võimeid
netfli
reaalsust
kullake
ohutuse
pidevas
paneks
kaubamaja
euroga
pühal
kuulates
tõlkida
asuvate
asuküla
hankida
rahvusvahelisel
mõjutanud
lasen
takistuseks
jälginud
toredad
toimuv
efekti
postitusest
sundis
##veski
proovima
tõsias
enter
enya
kosmeet
julgeoleku
kindlustada
huskyd
kehitas
kõrgusel
langus
mono
toitlustus
kuuluva
lähedane
säästa
##kaamera
maanteel
leheküljed
flashi
naerata
ulm
piirivalve
universumis
pikkade
rumala
avastanud
tajuda
vahendab
nõustun
rikutud
õudne
labor
kokkutule
##häire
keskkonnasõbral
juhtumeid
maailmavaatel
erasektor
istusin
esemeid
suudeta
põhimõtete
##gruppide
harmoon
hulluks
läbirääkimisi
motiiv
samasuguse
maksumaksja
detailplaneeringu
ekstree
mitmesuguseid
plugina
partei
šoko
hinnatõus
##kaupa
jooksevkonto
##toimetaja
tõekspida
tooraine
üleeile
kommerts
moosese
globaliseer
dir
dog
fea
fro
gö
gord
ivo
kit
lg
linda
lvm
mir
uuse
uima
vit
veni
vür
õis
ùks
##äis
##egi
##fia
##ffi
##cel
##lemis
##inter
##udesse
jagus
##eeh
kult
##aam
##aamat
##imust
võtsime
taro
##riel
maits
väidavad
##medal
sak
lar
mem
meieni
##utaja
kõnelda
##tiat
##juhti
muuga
minult
##endist
liitus
teeraja
sõitsin
##endanud
##endavad
suurused
suursaad
##luke
põõ
põneva
loodavad
nei
ettevaa
##paber
asse
##oonid
esil
esmat
sünge
kasutatavad
##otuse
tagama
tagasta
eelmäe
tänagi
tänased
elukaas
rahus
alad
otsime
arvust
kogumine
elad
lisatakse
lisandus
kuulutab
kesklinnas
kino
teenistuses
koosnev
eksi
##kütte
täiendus
avaldust
##eeriva
seoseid
õpetanud
jooksu
aitaksid
energi
aeglust
alljärg
##vaade
erakonda
vaatad
ristimist
niikaua
klienti
juhatab
lubatakse
kõrgele
hinne
osalemiseks
torud
devel
kandnud
katsed
vanematele
hei
kannatust
meelevald
võitle
lõpeta
tavalist
algatus
tootjate
##mmaste
sellistes
110
õhtuti
määratakse
näeks
võimete
netis
taolisel
uudist
alustati
testimiseks
planeet
##pilli
rõõmustada
tehnoloogiaid
##rask
ühesu
võimaldanud
shangha
##igupoolest
konkreetsete
viske
seletas
negatiivseid
plaanide
##leerida
kunstnike
lahkuma
divid
koeraga
##guselt
ohtralt
sõlmis
igapäevases
kauaks
##koormus
hiigel
müügiga
juhivad
poissi
käsile
energeetiliselt
##vabadus
##otsas
kättesaadavad
virtuaalse
elanikke
aimata
kanalisatsiooni
täpsustas
vasakule
külalisi
##ldse
lõhmus
keerukam
köök
mudelid
tõlgitud
##asutused
kujutlus
arvamusel
hoolitseda
lolli
suusaklubi
kartul
kalduvus
esines
haldja
tõuke
##filmi
mõnusalt
tavapärasest
kodukant
meeldiks
kallemets
kokkuleppele
kataloogis
suudetud
klassikaline
viisakalt
käibemaksu
halasta
jaapanis
kabine
##rantii
initsiat
vilets
meelelahutus
insener
kostis
sòò
toodangut
lõigata
krüp
signaali
alternatiivi
koalitsiooni
hõivatud
sõiduauto
veolia
tendents
perenaine
välisinvesteer
mööblit
rmk
hayek
initsiatiiv
jehoova
nhibernate
ahel
bul
che
can
eliit
hr
jh
ndate
pud
sù
slo
õigupoolest
##nide
##hha
##klub
##sasse
##muna
##dist
##ütle
##baas
##fer
##80
##ikki
##oov
##gade
##ganda
##vaen
kunna
##isemaks
koik
vaib
##laulu
##urk
##nduste
magn
##heri
##komm
summ
saatsin
##nite
sihi
laule
##valmid
näitust
valime
##emine
##itamise
muule
ministeeriumi
toite
hapu
teet
tõugu
niiet
kirjanduse
##ustan
teateid
##jaloo
##isaja
##pata
aastatuha
##onist
##alane
järelt
soost
soojus
lõid
lõhk
##oonide
luues
##tted
rep
tooli
toodab
viiteid
osadus
osakaalu
eelistab
peidus
jäägu
tehase
väheks
arvuga
##arva
kokkuhoiu
küsiti
rohkemgi
teenitud
teenimise
linnaosa
teadsid
kirjutame
isikule
sinult
järgmisi
seadet
õpime
kulul
kiind
põhjustanud
mõttest
##poeg
vaimseid
soovisin
##maali
pankade
kristust
kristluse
kristlased
tallinnasse
jutuaja
õnnetust
##ulatus
tehnilist
tehnilisi
pakkuja
pakkumisi
kogudused
poolfinaalis
##kõr
kõrgemalt
ebataval
mõnedki
pähk
vanemat
oskaks
tootjad
protsessid
##lastelt
paast
hindamisel
masu
lihulasse
taaskord
hoian
ostes
hooneid
võrdsed
apteeg
toimetus
elektria
kahtlusta
pideva
segaduses
jätkuvad
testimise
ravimi
rõõmustab
tehnoloogiad
registreerimise
tempos
makro
otsad
vanku
palgast
asuvat
seletus
madalad
meetmed
##kons
lahkub
primaar
katsetada
ohtlikud
arvutit
harjumus
gruppi
unenäo
##võimaluste
liiklusõnne
pööranud
keskendunud
aastasse
##oetus
kaugvis
solov
kaev
sirge
detaile
vastasin
tuulepargi
leppik
ruumide
populaarse
arved
tiiu
leheküljele
põlengu
kasutusse
kataloo
##ream
suurendamine
##võrku
etapis
variandi
mootorra
kaubanduskeskuse
sobiks
kasvut
ajendid
kohvik
vaimulike
##likkusele
##hüvit
majandustea
paigutatud
kruusa
##ograafia
rikkus
frantsiis
paksu
##partneri
ostetakse
reguleerida
igaühele
maksimaalne
vastutustund
silmitsi
##probleemid
garaa
puutumata
kompenseer
ladina
nigula
otsimootori
rohkemat
jumalateenistusel
läbimõõ
##komitee
progressi
kombinatsioon
jürgen
aleksand
platsil
alternatiive
täheldanud
identiteedi
evangeelse
metoodika
kohutavalt
hendrik
aimugi
palgaarmee
suklese
cowen
messenge
atribu
abstrakt
89
autas
file
funda
hur
itaali
klikk
lina
mus
oikum
putu
xp
##his
##kär
##ktsion
##sc
##siti
##ajast
##pr
##rch
##zy
##idil
##ikene
##tet
jagune
##gari
kaval
kasari
kuku
##uliseks
##rate
##rami
mad
##ham
##hami
##meks
olevale
lakka
##kants
##valduse
##saalne
täidavad
omaga
##empi
aller
keskele
##ikuus
palver
paljas
sõida
sõrve
suurenes
kirbla
##ustame
loomisele
ettekää
võimsad
##reisi
aastaseks
aastateks
vete
eso
kohma
jätsid
iloni
kraad
mulla
rohe
viise
##päevas
elukoha
eluülesa
rahalist
hoitud
kuulutatud
soft
ant
primit
muutust
tahaksid
kohtade
vabast
karmat
pilku
annad
ettevõtmise
mõtteviisi
##itsion
tekke
elur
##vastuse
kodumaa
õnnetusi
orkest
erasta
väikerii
tehniliselt
tehniliste
uuringuid
autost
riigihange
##keskuste
stimule
jagamise
kõrgemate
roosa
südamed
##kirjade
vaadatakse
piirkondades
toetusi
spaa
spur
dev
süsteemist
varahomm
korraldamiseks
mõistsin
mõistlikum
heid
seaduses
tegutsemine
tootlikkuse
merre
meistriks
##tõenä
silmapaist
hindavad
pidime
võistlustel
kultuurikeskuses
lisasin
projektist
projektides
säde
mäletab
puhastab
venemaalt
##tööstuse
keeruliseks
##iliik
segakoor
vormid
testimine
astme
astuma
sisuhaldus
rõõmsad
kodusaalis
laulud
järjekorda
keskkonnale
##pääse
##gentuuri
tuhanded
terror
kiired
muusikastuudio
##nõue
lasevad
arutleda
teismel
sihtgru
südamele
pikemaks
igapäevast
igapäevase
politseijaos
mahla
telefonil
##põhine
loodusega
valitses
üksteisega
rootslased
ressursi
##ehituse
##itööd
##otsuse
iseloomulik
tiiba
tekstiil
meestel
##korralduse
põhinev
lõppeb
defineerida
kivide
tõlgend
pesake
rahaline
##joontes
peterson
mineviku
alex
##haan
põlvkond
application
vedama
hotell
sõidukite
##piirkonna
menüüst
ajutise
pattude
##volutsiooni
administratiiv
holdem
eetika
lükatud
pakutava
irl
võetav
järjekordse
sekkuda
prognoo
##paigaks
religioonide
ekraanile
täheke
kapten
pinnale
pressitea
tüüpiline
pakkusid
voodis
eksisteerib
inglitel
puidust
lunastaja
tagur
remondiks
##imeeste
litsentseer
konkurentsivõimet
evlin
jalgpallik
mesila
kulgeb
üleüldse
tähelepanelik
koridori
ravikindlust
alampalga
##ühiskonna
betoon
teched
finalist
plur
alltoodud
kullapai
jpm
osalustasuga
magnet
veoauto
explorer
tähelepanuta
meistritiit
austus
aetud
by
baar
bör
gaas
iv
igalt
kinna
son
tn
talt
vents
xx
ša
##ktuuri
##kett
##sm
##siks
##aks
##pot
##iest
##dul
##füüs
##seni
##ikur
##gaa
##usüsteem
temasse
##itz
kolu
koleda
##lasel
##iiri
taimi
##rias
##meh
tuum
tuues
sundi
##stan
##karu
##kavas
kassa
raua
##emist
##umit
muigas
algu
minusse
##altur
##ikumaks
paldis
töötut
korpo
korrig
kirg
põdra
##parand
##ign
millelt
##nnid
erilised
##tset
konstruk
jätan
##enevad
reo
krii
osana
eelarvam
nõutakse
hunn
otsimine
elamis
keskne
##tabeli
kinke
läbima
vajan
joone
muutmist
olnudki
teadmatus
eeskujul
riiete
kirjutage
##laadi
maksusta
rivi
usina
abita
endel
##eeria
kirikuhoone
tunnid
##ritöö
jõudsime
jõudsalt
asjadele
taastamise
nojah
leidsime
kahekesi
jooksvalt
##nikku
##ituks
jälgis
elude
tuttava
pääseks
##messe
parempool
postimehe
erakord
riiklikud
tehnilised
linki
jääbki
valmisolek
stress
room
konkurentide
majanduskriis
mõtetest
##väärset
ärimees
usule
verd
tavaliste
algatatud
paremas
loeme
##hald
jalge
##olukorra
kehale
kehaga
sellistest
tegelen
meistril
isiklikku
hoiatus
ostmiseks
toetub
toetuda
äriregist
millegagi
täitmist
palvetele
värba
muutes
kahtlane
ohverda
mõningast
seisukorras
segadusse
haridusega
järeleval
kuuske
inglitele
norras
olgugi
refle
keskkonnamõju
mürg
koodiga
tähtsaim
kunstniku
ilusaks
lennuk
arutles
vahea
valdade
süsteemiga
##aliseeritud
sõltumatu
numbritega
omanikke
purjus
sundteen
artiklile
religioosse
dani
löönud
üksteisest
rootslaste
muutumatu
keelata
selgitus
roheliste
rohelised
issandat
efektiivsuse
operatiiv
##parki
nutma
nutta
festivalil
kohustusliku
täpsustada
alustasid
märgatavalt
keerukat
relvad
riigikokku
##koloog
tõrgete
##keelne
##imäng
kujutle
kahjustada
paikne
minevikust
pühapäevakooli
##plaanile
stabiilselt
hotellis
aruanne
komplekt
funktsionaalsus
regulatsioon
lähiaasta
rikkuda
tuhandete
jäetakse
värsket
ustav
individuaalne
pärand
ruth
mainib
hambad
##organisa
##utulest
fännik
selgunud
protesti
##institu
speku
##perioodil
haruldane
kaabel
pindala
targemaks
loomaaia
tõotab
tegutses
jünger
kompileer
tsitaat
kvartalis
judge
novosjolov
osmussaare
süsives
ane
asta
cli
fish
gene
gril
gmail
jon
jeru
mikk
om
oksa
pess
ràà
rituaal
thu
tingi
tserem
uust
west
yle
##umisel
##eas
##õh
##run
##üli
##25
##yo
##stem
##alust
##inen
##inkub
##elust
##tata
##ikulu
##tend
##oode
kure
##jaal
teelt
temaat
##ital
##istliku
##rateegia
vahi
võsa
##urii
##utod
##rix
sec
oletada
##komb
suvita
##stades
saak
saati
saatust
pah
##kamad
##utaks
kõiku
##sam
##kura
##ndanud
peaing
muhu
alustatud
alustel
tulevat
läkita
##tsiisi
haju
sõitu
kät
kähku
nefi
võimul
üleu
maapinna
lõig
väljamine
##uar
##inate
kasutasin
kasutamisega
##iai
##jele
viir
tagasil
eluaeg
veenda
aladel
enamuses
enamusele
näites
kunagise
liita
küllust
kalur
avavee
vabateema
maksad
maksusüsteemi
##tom
üldjoontes
kivil
sams
kindlam
nimetus
soovisid
##eerimata
jõudmine
sõnades
asjasse
õpetavad
paralepa
kohtunud
vahelise
jutus
paremuse
kurjate
erandeid
sisekuju
kaitseingel
kergi
lõputu
mängude
südam
kogemusega
firmale
##vanem
ametniku
##iblu
programmiga
lõpetasin
loevad
kaotavad
sündida
##kraani
hoopiski
poliitik
tegelemine
punktile
edukad
sarnaneb
võistkonna
võistkonda
võistluste
proovid
hüp
##juhtimise
jõuan
õppeala
infotehnoloogia
teose
esindajate
omavalitsustele
toimetuse
ütled
puhver
segada
segadus
kaubamärgi
koguduseliik
üllatunud
sügavam
entity
senised
##pildi
politseile
vähendas
õpetatakse
odavalt
##sõit
foorumist
turunda
divisjoni
augustiblu
unenägusid
##inimene
kauplus
töötuba
tähistas
##põhimõ
lilla
meeskonnaga
käiakse
tutvustatakse
rõhutab
hõlp
selgitust
tellijale
remmel
kivist
##erohke
##teelia
minevikku
tervishoiusüsteemi
püsinud
pelga
visiooni
ajaloolise
##taseme
omavalitsusliidu
funktsionaalsust
ühistransport
päevalehe
##asjade
kasulikud
kasulikku
põhisead
akadeemilise
lauset
vangla
kõiksuse
symbi
väljaand
ebaa
truud
moroni
minimaalselt
lapsepõlves
iraani
eestikeelne
##oloogilised
vaimusilmas
iialgi
sakslaste
omaosalus
##konverentsi
jalgrattaga
loenguid
venelased
samasugust
##kapital
üllatavaltki
annetusi
##nägemise
surface
õõne
kasutajali
erismaa
services
esmaabi
komando
planeedil
##otstarbel
rahuvarm
eestiroots
kompromis
library
##omanikud
initsiatiivi
jeruusa
86
cu
dub
hit
hiir
hong
horis
kisa
niker
rooli
àra
##umas
##unnet
##evad
##kood
##kinn
##sru
##obi
##paat
##õud
##br
##bri
##foto
##70
##stme
##sepp
##inus
##inenud
##idust
##danud
##tamatu
##ikes
java
##gata
kuut
kukub
##ustuste
##urce
tale
##utite
##utot
maire
mapper
##merad
olek
##hem
##ers
juhte
suun
savi
saun
pannes
lavasta
##kamb
kõigu
mõjus
##kuulu
kasvatus
naistel
##roni
alused
mini
##endil
lihv
##tsuse
oliver
tour
hale
teekond
töötud
töötasid
puuse
puidu
puulaeva
teaks
##ktur
loomal
##iksin
võimule
ülekaal
##iteet
ask
##nnel
##maaga
igaku
tegemas
ilmas
kroone
viirus
##nuna
##ved
jäädes
hugo
host
haag
kõrvat
tarka
turiste
päring
pärimus
lisades
lisaraha
kokkuhoidu
küsin
muutuse
kohtadesse
võtmist
eesotsas
avarda
eksk
riba
kartis
järgmiselt
search
kulutatud
halvas
##erib
soovil
tunnustuse
lugejale
lugejatele
algorit
müüt
müügis
müügit
kahekord
taskust
tulemustega
maailmameist
ilmar
kurjad
tüki
arendama
##lisid
##imisse
õppimise
juhans
korrata
##ttida
leiaks
reach
kutsuvad
konkurendid
##ikohal
lastes
mängumin
kujuneda
läksime
hekta
algasid
##üsteeme
##meditsi
##hallis
poliitilised
mõistad
rääkisime
mõõtu
##riig
sotsiaalmaks
hõre
täitmata
täitmisel
sall
esindavad
alustavate
arengufond
##hinnad
käsku
rajaneb
ümbruse
aktiivset
##rahvale
easilt
töökogem
raskused
##konoom
takistused
arvutite
valgusole
arhiivi
kodut
esmase
esmajoones
##tarbi
tõstmise
suveks
proovige
telefonis
tsivil
tsitaa
universaalne
selgeltnä
kehasse
monopol
suguvõ
toitumis
ruumides
sideme
energeetiline
analüüt
##juhina
rünnak
konteksti
uurimus
##korraldus
nõrga
##karva
emig
350
komponentide
kurbust
odavamaks
taimetoit
hoolekande
ravimid
tunniga
tervendaja
teistsugused
probleemideta
##viib
johann
läheneda
ilukir
intervjuus
##partner
kosmoses
teadvustada
1920
tudengid
huvilisi
reguleeritud
pärinevad
küünlad
võõraste
viidates
juriidiline
voolata
taustaga
lülitatud
ustavad
pingutama
aastakümnete
näitusel
parkimis
piiskopi
kalmistul
genia
legend
tootearenduse
litsents
lühem
oksjoni
kelgukoerte
näidis
puhverdamise
maailmasõda
konkreetsed
vältimatu
laurenti
##kontsert
stuudio
kasutusliides
kutsehariduskeskuse
vasika
krediit
##konverentsil
sotside
asfal
depressioon
ülaltoodud
olemasolust
filateelia
planeedi
instituudis
postimehes
##printsii
informat
mp3
ventila
puutetund
evakuatsiooni
ventspil
õppealajuhataja
74
98
cv
cer
form
grand
imes
kitar
müstee
pelt
rela
rikas
tb
tige
utoo
via
õe
##tustega
##toot
##musest
##oits
##ial
##ükka
##ünni
##bed
##15
##11
##inaar
##idea
##isil
##ikel
##usku
##aastal
##useumi
##istusel
kond
konna
koppa
vaga
##sionaal
##utõ
##inete
mag
väidan
##komple
suunal
ladus
lakoon
insen
metod
##öögi
omaha
##kunud
##tiid
missiooni
ramm
peamise
nahka
##ump
##umee
##umisa
kün
tuleme
läpa
teemasse
##endaar
suurtest
puuri
puuetega
väliste
neisse
##ongi
##alased
maar
##rveri
väljastatud
erg
##uajal
##tter
rega
reimo
tegeles
mullusest
roh
##matki
nõks
elutee
ajakiri
otsustatud
oskas
##suuna
turust
turgude
elasin
kuuluda
vajaks
kaaslane
kaasnev
jooga
kalla
avara
##aarst
poolelt
##onia
##osse
sulges
moe
liikle
##poli
meili
infra
tegeliku
müügil
kristusest
marke
suhteline
mitmetes
uurimise
linnul
tugevaid
koolile
lahendusega
arendajatel
isast
riigieksa
siiras
murtud
##palga
ettevõttega
miisu
firmasid
lastetöö
mõtlemise
osalejatele
mänguaega
raskeid
##torni
täpse
kannatanud
tutvustavad
seadusi
lõpetamist
helde
tegelev
emakeele
hindama
püütud
püüdes
suuremal
muusik
pisikest
istuvad
piirang
külastanud
ohj
paneel
2500
sügaval
##fekt
ühelgi
tühjad
sammult
valmistamiseks
sõidukiir
kontserdil
vanus
##sõbral
nendeni
muuseas
tähtsamad
suuremates
meeldejää
##meelsed
takistusi
õpetused
tõdeb
rannaküla
##inimeste
otsustasime
veab
pöördumise
tutvustati
turvaliselt
rohelist
veenduda
##kaarte
pinnal
ülejäänu
##uuringu
muudetakse
suhtlemisel
tippu
lõhutud
rongi
lahkelt
paberil
lehis
pelgul
update
muinsuskaitseameti
vaenlase
##mängus
spetsiaalse
laekub
pikaajaline
lapsevanem
tšempi
andmebaasist
##liia
austraal
ülestõusnud
asutuste
saatuslikuks
viisakas
andrei
mobiiltelefonide
sujuvalt
legendaar
meditatsioon
##ruumid
litsentsi
beeta
omanikele
misjonärid
paigast
harrastus
õppetü
##ettevõtete
toimetuleku
##ähedane
ettekujutus
vaktsi
anasta
näitleja
##järjekorras
asjakohane
world
tagantjärgi
tarbijakaitseamet
koalitsioon
londonis
promenaadil
sitemap
narkootikum
kompakt
pseudo
asetäitja
gordon
suursaadik
oikumeen
avaveeranda
audio
deb
frak
got
kud
kett
lò
lim
laasta
naas
over
oec
sine
salt
uib
voli
##edu
##evu
##ap
##mööda
##oe
##oim
##rral
##remo
##ds
##vool
##jooni
##18
##seme
##alused
##allikas
##idide
##made
##majand
##eldes
##tah
##ooteid
jaksu
##usikat
##varal
kasi
kurv
##ith
##itusest
##asju
##asutuse
##ineid
mait
maili
paide
lake
lastee
laseks
lamber
arne
##utame
mõl
pojaga
rats
##ndavad
peatoimetaja
##orist
valides
valmo
valker
tulekul
milj
lätist
##tsiga
##ikutega
teemale
##endama
suurusest
##mistega
ülea
lõvi
##eerime
##eerunud
väljasta
ükspäev
vastuste
kasutajat
jätsin
##istad
ilutulest
viivita
##ikesed
osake
osaühingu
tagas
eelistada
eelmainitud
##matusega
andmist
huul
##itsime
eluees
ainsad
ajajär
hobi
väheke
kogutakse
kellegil
sos
kingi
anton
toimuks
teenusega
siinsed
teadlikkuse
tervises
raadik
erinevas
eksita
##huv
##toet
üldharidus
kardab
järgult
järgnenud
kulutama
##likuma
võimalikku
abit
põhjustas
##poe
õigesse
asjale
müüs
probleemist
leidus
kohtuvad
kohtunik
tähendanud
rõiva
kristlaste
##märke
marginaal
ehitamist
ortod
erapoole
sisetur
arendamisele
##profi
juhatusel
kogudusel
loomingut
pikendada
kuuks
kuuenda
docs
spons
tormi
rõõmsalt
elemente
##ching
mõistis
mõistmist
helesin
kannatama
võitlema
ametist
lihtsaid
lõpetamine
oskame
tegutsemis
kaotamine
jalutus
##alistlik
tahtlikult
isiklike
polnudki
##ikassa
pidulik
viltu
juhised
suutma
filme
moodusta
olukorrale
lühi
##istasin
garantii
dokumenti
värvide
jüssi
##listi
kontsent
ühenduste
tõlgete
üritustel
sajandeid
nooremad
saksamaalt
valgeks
esinemine
üritada
keelte
plaanist
##card
ilusasti
vabaa
##nõunik
küüni
koertel
##mõisa
##mõtle
laenude
kutset
jälgides
kandideeris
seminarid
varasem
lööma
##ituru
laulupeo
ressurss
##haridusega
kriitiline
vabatahtlikud
optimis
fotosid
mõõtmed
korrusele
venemaale
detailid
operatsiooni
virtuaalne
väljund
ehitise
##omanike
tasandile
koolituste
riigikogus
ained
ainete
rahastatakse
omandatud
##ilisust
olemasolev
vastuseisu
briti
ligime
rahalise
summast
ajend
tumedad
##nderb
hoolitseb
kuvada
huvitavamaid
kihnu
vahendas
vastuvõtt
võlgu
konkursile
vastupidist
elektrooniliselt
##häält
ohvriks
küsitluse
mehest
pisikesed
tšeh
nullist
##ündinud
andmebaaside
rüüt
koordinaator
laiema
erasektoris
1960
ülestõusmise
tüdrukut
katkesta
vaatluse
puhkama
demograaf
miinus
ameeriklased
harrasta
prioriteed
kandidaati
kandidaatide
paviljon
dialoogi
seonduv
programmeerija
mittetulundusühing
surnukeha
ähvard
pigistada
ametiühingud
ranniku
ümbruskonna
märksõnade
tähtaeg
##rühm
afgan
väljakutseid
juhiluba
javascripti
alampal
hullemaks
pakettide
euroopasse
prototüüp
piiskopilinnuse
pumba
üksikasjal
stockholmi
takso
##efektiiv
turismiarenduskeskuse
sülearv
esmatäht
itaalias
esoteer
thunderb
pelgulinna
alev
ehe
fl
fis
goo
giga
kml
lisaa
nendi
oeh
run
ruti
ökoloog
##tsed
##etakse
##akadeemia
##pril
##õhk
##bs
##cc
##allid
##iness
##idla
##taste
##tavatele
##iklub
##eesi
##aarv
##istustest
kotti
##gijad
##randi
tuult
sekretär
laba
##sab
mõnu
kasutuse
missa
mismoodi
kümnes
alma
##ikuju
teekonna
käig
##võidu
teatavasti
põleb
üleole
aastaselt
##vib
iseasi
maagia
mitmest
asusid
inimelu
##eerisid
##uad
üksikuid
igakord
taluda
talgul
mäda
saabudes
eelised
külli
jõude
##udeleid
##tasime
kolis
inimeselt
tartust
elast
lokaal
märkus
kokkuhoi
teenimist
teenisid
kaaslase
linnaga
avanevad
riietus
##iniga
olulis
riist
karista
##portaali
pirita
ettevõtmisi
vaher
liikmena
põhjustatud
avalikuks
kirikuid
tunnetan
meelitada
sissemakse
asjas
nostal
##ikkusega
##märkide
##piga
marja
jutuga
vääriline
järgivad
rakveres
ehitajad
eraettevõt
uuritud
##grammi
õppisin
##keskkonnas
läänemaad
ettevõttest
hingi
näitaja
##ikomple
piirdu
majanduspoliitika
õnnistused
pööri
osalemist
perekonnas
mänguga
kattel
hek
paarsada
lihtsaks
##üsteemist
##medali
jalutada
poliitiliste
nädalaga
kirjade
juhiseid
sotsiaalfondi
toetamiseks
äripäeva
hüppe
##jäät
##jäänud
##aastaste
avaldamist
hoidke
praktilisi
##panek
üllatav
rajamist
mõeldakse
kulukas
tasuma
ümbrust
##ugused
tõlke
samalaad
nõusoleku
palgatõ
asume
klientidega
rahvusvaheliselt
sajandite
##hoidja
##gener
##genti
##võistlusel
viska
tugevdada
huvidest
##ikiri
haiged
tarvita
tervislik
tervisliku
hetked
hetkega
tarbijad
toimuval
vooliku
pääsevad
tavakasuta
keelest
käisime
pöörama
pimedus
pimeduse
videot
installi
telefonid
tähendused
petta
sõnumite
veebruarist
vorme
tutvustav
turvalisust
iseendast
ametiühingu
ekspertide
eksperdid
fotode
trahv
##eenust
##juhiks
väljub
täpsusta
alternatiivseid
kööki
##protsend
lehekülgedel
mudelite
nõrgad
lahkesti
lõppeda
kaevata
komponendid
ridade
tõrkeid
helen
valmistas
kaardil
teistsuguse
võõrusta
vaimulikku
märkamata
tellimuste
naabr
##materjalid
stabiilne
narko
pokkerimängi
trepiko
paistnud
demokraat
##volutsioon
vòib
##mendil
sooritada
laiemat
kokkulepped
harjutada
suudetakse
nälg
teineteisele
lapsepõlvest
harmoonia
kontserte
natukenegi
powerpo
esialgse
õppetöö
peegli
##ttevõtete
õpilaskodu
leevendada
ruutmeetri
lähtekoodiga
raporteer
ajujaht
##õhtul
armulaua
pagerank
maagaasi
suheldes
järjekorrad
noorsootöö
swedban
mudilaskoor
reaalajas
diagnost
assemb
hõlpsasti
oecd
94
bas
ceb
control
emb
fass
grea
ik
ite
ivan
mig
vul
vöö
äge
##ning
##umiseks
##uxi
##hoonesse
##spe
##ajaks
##mosf
##okum
##õu
##vormi
##lustega
##alasid
##ink
##idul
##idist
##elli
##teemal
##varu
kapi
##jao
##jar
temb
terra
##ilma
##ilikult
##rajad
##nemise
vanni
varuk
##iig
##urit
##nduvad
##iner
mahe
tug
tuisk
olendeid
##detakse
saia
inkub
medel
täise
võimatuks
##likes
##umite
eestlase
pallika
tõend
sõin
sedasama
käime
##nner
ettean
ülemiste
aastased
##ubaasi
asutas
##steks
kohutav
##duub
ühea
kasutatava
##enemise
repor
repres
eestiga
talus
ilmal
##itseb
mäl
krista
viiruk
külalist
##uno
tänavale
eluviisi
aino
alahinna
vastuolu
osalt
kõrgust
lisaväär
loc
rahastab
kindad
##sidel
teenustega
teeninduse
kaldal
üldised
vastamisi
järgmisele
abor
sulg
haapsalule
mõtteviis
hulg
puudusi
puudutada
küsimustega
jõudlust
kordamine
##resse
tähendama
armastas
pääs
türgi
tugevus
asetse
##prof
kasvatab
isad
pidamiseks
ümberringi
energiate
##ulugu
piiril
majandusaasta
kuupäev
jumalas
##väärsed
vajadusele
projektile
seadusest
##ktorit
otsest
hääb
verer
##nov
selgemalt
tootma
tahtsime
merike
isiklikud
paat
sööt
mask
haigusi
kultuurite
vili
tõsiseid
##riigid
##giliik
toetajaid
armastame
rakendustes
kolmele
õpetajaks
teoseid
võimet
võrdluseks
add
alustavad
alustamise
autoriks
avaldamine
ohut
segaseks
loobumine
sadade
tingimusel
üllatas
üllatusi
vähendamise
tegevusala
tegevusvald
tegevuskava
õpetamine
palgatöö
kiltsi
sünnivad
##rahvast
##punktid
millelegi
tähtsat
esialgne
töötajale
liiduga
kantakse
ennustus
harjumaa
##talk
nõudmised
klõ
##üsteemiga
septembrist
aprillist
sundüür
punased
##õiguste
brauserite
kroonise
saadet
kehve
kehtesta
##ikutel
atmosf
hinnanguliselt
veendumus
ümbritseb
naerda
elanikkonna
koolitusele
ettekandeid
teravalt
auhinnad
rakendamise
videote
külalistele
kuldne
ajaleht
teostaja
index
sattusid
häälte
sularaha
summas
##iseerima
vedas
kreek
##box
##üritus
##ürituste
käituvad
komplekti
asjalik
labori
piibl
intellig
jäeti
peategelane
märksõnad
aadressile
mõtiskleda
system
välisturgudel
pakkudes
storage
tuleohutuse
virumaa
##organisatsioon
##imeedia
korrektne
spämmi
wordpressi
kultuuriministeerium
kultuuriministeeriumi
inspireeritud
tài
willi
pereliikme
render
##instrum
pistmist
apteek
kolib
savisaare
hobune
kontseptsiooni
sellegipoolest
kiirgab
hinnatõusu
techn
mastaa
pokerstar
keskkonnaameti
skulptuur
kohusetäit
finantst
veterinaar
kasvatuse
vabadussõja
fikseeritud
mozilla
hüvangu
liiklusohutuse
mängureeg
heeb
##paistev
nutitelefon
##assaadi
lähitulevikus
sakraal
imesid
lasteekraani
nendib
cebit
92
aer
aig
cas
char
ilt
iste
lust
line
limi
listi
mb
mala
nsv
pen
pliia
sm
tiir
ust
vm
äike
##uud
##uun
##king
##suste
##sori
##mood
##ption
##rikku
##dumist
##dustega
##beli
##xy
##mati
##tavus
##ikko
kase
kuj
koti
##ration
vajus
tato
##ndile
may
maali
väet
tunt
##vadest
##kot
sander
sileda
paka
lased
arutama
argenti
kõlb
mõisas
pojale
kasvades
##ligen
rat
ratt
valva
allo
allikad
##endina
tulek
aavik
militaar
hai
hanno
paluma
koorid
teemas
##bib
##bile
provo
põim
põla
neo
neub
ettekir
võimuses
##paig
veiko
maamaks
asü
##ikar
inimlik
##rvet
väljade
väljakul
##jadest
jäne
jätame
##mbe
tald
toomine
viigi
##otust
muljet
eeldus
romant
jões
sellistele
##gelase
eluteel
elukvalitee
ajakava
enamikul
tarni
juured
tundunud
arvud
arvutada
turult
elamist
##puna
suuremast
keskmist
räägiks
rohkesti
pril
teenimine
korralduse
tahagi
kallaste
kalline
terviku
tervelt
peresid
sealne
riisi
õpitakse
##onile
kive
ennetada
harri
mode
põhjustest
##poes
ilmneb
ilmutus
tunnus
tunnustada
lugejas
oote
saigi
meelita
asjaosal
saanudki
vallasekretär
panime
##märgid
##pima
armastusele
kinnitanud
##vastus
suhtumise
tuttavaks
pühako
postkasti
uurisin
koolitaja
väikesest
sisestatud
nih
lastekoori
##tavuse
stru
##kõrg
tegevuseks
##riteks
tähtsus
suudate
firmal
vaadatuna
dota
##vanemate
liigagi
lihtsate
televiis
selgemaks
valdkonnad
kaota
111
nädalaks
tahtmise
mõistame
söömine
villa
##põr
jeesust
lähme
puhastuse
puhastust
hüd
palveta
asjades
uudise
võrdles
##aastat
toimetaja
finaalis
kaubanduse
jätkunud
rajati
ideest
dokumenteer
tehnoloogiaga
lahendamisel
vangi
toodetega
asuvas
##kandid
saksamaale
lauas
##väljal
kontrollitud
muster
kujutage
kangast
laseme
teispool
meetodeid
nõudmisi
porga
toimuvale
sõltuvad
kontrollitakse
omanikku
tõstnud
käepärast
mainimist
ridalas
varasemad
evangeeliumis
hiig
##energeet
müügile
vihka
joonis
telefoninumb
valitseja
tehas
muutumas
lisanduvad
novembrist
sidemed
##programmis
##vabadust
populaarseks
interaktiiv
##uuringud
loodetakse
naeris
baltic
seinast
kaupade
kopter
aidake
halbade
valmimist
jumalateenistuse
defineeritud
definitsiooni
digiallkirja
visates
kasvule
teostamiseks
1987
riskide
viimsi
renoveeritud
ajalooline
säästva
raudteejaama
regulatsioonid
päevaleht
kergemini
akadeemia
##piiri
seinte
sooviksin
intelligen
##formaa
loomingul
institutsionaal
##mootor
kodumäng
emotsionaalne
kadusid
sõbralik
esitlus
territooriumi
meditsiinis
devalveerimise
lammutada
hambaid
seadusandlus
propaganda
manif
lähtekood
mingisugust
black
veskivii
##puhkuse
indekseer
carl
##ühenduste
juhiloa
sünteet
signaal
hüppas
hüüdis
osapooled
riigigümnaasiumi
veebiserver
restorani
statistikaameti
heategu
flex
portaalis
laikmaa
araabia
inseneeria
anastasia
varukoopia
etteantud
austada
ce
ec
emal
estee
evel
evald
mk
okay
vingu
wõ
wer
##umat
##uuna
##tüü
##tustele
##kroon
##sü
##miks
##õja
##õige
##reli
##jor
##well
##leva
kaoks
kuke
kurita
##aate
##useum
kogusid
##rann
vales
võiksite
##ndusest
##riide
vähk
##hat
##mehi
sef
sig
paja
laval
ink
##kaudu
##utamisega
##ööv
##ööstuse
omakas
##kuma
poli
pojad
poed
##ndatakse
##ndamiseks
##orme
naiiv
##umide
##umees
alk
liide
##kija
##kihi
tulenev
tõin
##endamist
legal
##võlg
teated
teatavaks
lootes
loomu
##reklaa
##vic
isese
esind
väljamakse
##maajal
põhitöö
viiru
eeltöö
eelistused
headuse
keis
nõustamist
##uniku
##ruka
hundi
eluiga
elukeskkonna
hoovi
ajax
alat
osutada
tundlik
needki
turistid
lojaal
keskendus
juhtuks
##lass
toimiva
kõigevä
siinne
eurole
võtmed
avast
##toidu
kartsin
sinise
kohatu
kull
kulutab
kiil
kivit
##oskus
teisega
põhjendada
vaimole
projek
##päevale
küsimusega
jõudmiseks
koolil
raskus
tegelt
leidmisel
kohtusid
panust
vahelduseks
kaasaja
kaasamine
##nikke
task
marina
kinnitasid
##elad
teinegi
kurbus
väikes
linq
sisemuses
õppimiseks
##kusid
juhatada
mängiti
poolne
lubati
lubadus
suudaksid
ebasel
jumalasse
taotlused
ärrit
vanematel
korraldanud
##torn
täpsed
täpset
täpsemat
mõistusega
soovitaks
vert
algatusel
##poolset
tegutsevate
##irektori
kirjatü
##ikasuta
##utunne
ostjaid
toetu
läbitud
neljast
omavalitsust
arenguks
business
##hinnaga
sadamasse
väheste
tingimustele
käsitööd
jätkuks
raviks
senini
rajamise
astuvad
##varustuse
linnaar
edasine
lahendab
templit
laulja
laulur
##kandis
sajandit
sünnipäeval
päästis
tarkvaraar
kasutust
taotlemine
juhatajana
kinnitusel
jalaga
ilusate
vaese
vaeval
leek
tunnistanud
kodua
ports
rannas
bapt
##projekte
tõstmist
versioonide
##poliitikast
##oetused
lihast
nähtavale
liigselt
võiduga
##riikidest
parandatud
kaevu
lilled
meeskonnale
isikutele
kindlustatud
##pakkumise
rõhutada
tehing
tehinguid
##marine
turvalise
kohustuse
seltskonna
ajastul
##tegevuse
efektiivne
riska
telefoniga
ükskõiks
puhkus
sümboli
protsesside
##naab
tabelisse
koostamiseks
kingitud
kanalisatsioon
naeratus
agenda
##õpetust
misjonitöö
alustasime
1949
aidates
lubasid
ajakirjand
sekundiga
komponente
allikast
graafiku
ligim
läänlaste
võõrsil
lepingus
piirangutega
peterbur
perspektiivi
alekse
##likkusega
niisuguse
naabrid
##materjalide
pühitseti
vaenul
vaenlane
stere
steve
##mängude
pokkeritur
##piirkonnas
passi
ajalooliselt
aruand
vastupidine
##finaali
asjaliku
ekspressi
news
juhtumit
nulli
patsiendi
##nimetatud
osutusid
juriidilise
kokkulepp
läbiviimiseks
vastastik
##imüügi
pingutada
välimuse
liider
korjata
miinimumpalk
lootusetu
garanteeritud
hilisem
loodustur
tootearend
laulab
powers
sõjalise
institutsioonide
lasteaedade
ettekujutuse
kompetentsikeskuse
vältimatult
esivanemate
krüger
baltik
aastalt
geograafia
kirikumuus
##suhete
dirigent
retsepti
parlamendi
energiasääst
meeleheit
riigigümnaasium
klienditeeninda
helilooja
bensiini
ookeani
kompetentsi
assotsia
veebirakenduse
raymarine
sentimeet
photoshop
eichfuss
tööhõive
osatähtsus
messenger
veskiviigi
kuritarv
boks
cro
casin
den
dmit
emp
edusa
fer
fook
get
geen
lendab
mà
nali
tiiv
tsaa
we
##uas
##ukku
##hhi
##mmist
##ohv
##piks
##pikku
##õda
##õpu
##õhu
##dn
##jela
##22
##ymp
##33
##alised
##ussi
##imäe
tex
teles
##ulud
##itta
kogen
##raid
##nemine
võidetud
##lap
takt
##rites
mahtu
väitega
olymp
sav
sajad
pann
lag
lama
##öödia
täite
tähte
omanä
##idet
rase
valimise
valisid
napp
nauti
nahal
##bat
##etoot
mindi
##kivist
tuleneva
toda
tonn
hauda
sõjas
##dig
##massi
levis
##võeta
ülekaalu
##olud
##viaal
järv
maavär
soojad
soojalt
##rvest
esikohal
luk
erik
erista
##tseid
konks
jänes
##ppol
revisjon
taluma
saabumist
osades
eelistan
külva
kera
viimine
kolinud
##vatust
vaateid
uuendada
tehases
ajapikku
otsingud
väheseid
juurte
tundide
##ühenduse
lisama
kelleks
märgist
kokkupuu
##eldatud
kuulusid
kink
toimun
toimimise
print
keevita
koosne
kohtadest
linnad
tervele
avamise
ajaliselt
erineval
eksoot
kirjutamiseks
pürami
vabariigis
maksudest
##külast
##los
karistus
pildis
esitamist
kuludest
kiidab
##raadi
##uriga
abikassa
endid
ettevõtjaks
mob
põhjusta
avalikud
avaldub
avalikkusele
soovituse
kirikutes
jätma
õigustab
seosed
koolila
taastamist
ümbera
unustatud
tegelikku
suru
nokitse
hinnas
rõi
kristusesse
##itunn
eluru
105
jutuks
##vaate
##vaatle
tuttavaid
linuxi
kerkinud
##progn
juhatas
##palk
##pall
jagame
##ikonna
piiritle
laius
majanduslikku
majanduskriisi
peredele
katusel
suunatakse
klasse
kannatus
paariks
soovitatakse
paremate
kustutamine
kaotatud
##olukorras
co2
##stasin
hindasid
massaa
öösiti
juhitud
väiksemaks
taolises
teisedki
omavalitsusi
finaaltur
kahtlusi
külastajale
gümnaasiumist
vaikse
vaikmäe
enesega
segamini
loobus
pakutavad
tasemega
##vardab
registreeruda
tolm
volikogule
laeval
cato
hanilas
ülikoolile
päästeamet
##koolitus
tähtsamaid
huvitu
tuhand
koorem
rollis
mustrid
metsast
ennustas
saareväli
takistus
harjumaal
klassist
pahaks
omanikul
pikemad
kehtiv
##tehnika
varasemate
surmani
rõõmuks
liikmetest
tähistatakse
proovib
joonisel
tõsiasja
##iturunduse
pettunud
olukordades
julgeks
lihtsamini
punktist
reisisi
studi
tekstis
traditsiooniliselt
monum
kuuluvate
energeetikat
palkade
luterlus
ümbritseva
tulevastele
tööandjad
vasaku
kliendiga
tasakaalustatud
ie7
põhineva
puhastama
komponendi
paberit
chris
rahalisi
##teerima
##ingimustes
sõpradele
msn
eales
ujumis
ekspordit
laiaulatus
käituma
taotlusvooru
elektroonika
osteti
##hetk
##hetkel
väljatöötamine
vajutada
optimeerida
ähvardab
kalender
tuumajaama
materiaalne
raadios
##film
sekkumine
barjäär
maastiku
kõrvu
installeerida
formaati
vanematega
kramp
uhked
klee
##oloogilisi
seisundis
sugulased
motor
ladva
##raamatukogu
andmebaasid
pankrotti
venelaste
maksumaksjate
skeptiline
##rünna
keskaeg
toiduainete
otsingumootori
apteegi
tähtaega
templisse
skautlus
bännerite
kerkib
lõdvest
##nõudev
islami
sobilik
lootma
riigieelarvest
kontrollerite
modelleer
aseesimees
prohvetite
integratsioon
trükkida
gripi
suurbritannia
teenusepakkuja
##korraldaja
kahetsusväärselt
reitingu
##platvorm
kammerkoor
tohtinud
tennisberg
kaelas
hasart
kaksikduub
kasutajasõbral
eksemp
toleran
süstemaat
politseijaoskonna
tõrgeteta
symbian
kõrvatro
esteet
powershel
ate
agentuur
boon
baasi
cr
cla
call
crea
dy
ein
emast
him
imb
kp
kinnas
m6
nl
okse
uksi
wä
was
zim
äkit
šia
##unne
##kii
##kesta
##adust
##mikku
##mustest
##ob
##of
##oc
##ose
##pina
##ira
##õnn
##gb
##gusest
##best
##fika
##19
##stitut
##alus
##dade
##tamis
##tatav
jahta
kannet
kandeid
##iseda
kott
koppel
võte
võidavad
##late
##ndmed
##riter
väitis
oldi
##komp
##stabiil
sand
patt
ingeri
##kanne
kõht
kõhe
##valgus
kassid
ram
rais
##ndardi
valige
valimisel
##rohel
##bad
muuks
eestilise
tõt
tõsid
##keri
väldi
loomis
nebo
##paketi
##redi
##vig
##viise
soopan
asutus
##ikand
##ikampaania
lõkke
##rver
väljad
väljapääsu
üksiku
vastutule
ühil
jäme
reik
talla
ütlus
meenu
heakorra
jõup
andmiseks
kelles
tuligi
jääv
nõl
nendeks
elumaja
elukogem
home
##ühm
pärlid
keskelt
keskpäeval
küsime
juhtimist
arvasid
joobes
muutumine
linnakeskkonna
mõneti
kirjutaja
ehma
püssi
##laag
maksmata
usb
vastavas
kindlaid
endile
endised
haljast
nimetati
mõttea
aegajalt
puudused
puudutas
kordan
õpetatud
surra
kristlikku
aitan
tulemustest
##oriaal
108
hiljaks
##oodid
kurj
pealkirjad
riiklikult
tugevasti
arendamist
##ustasu
isake
teistpidi
lastekaitse
##keskust
##külla
reader
kõrgemaks
konkureerida
piirmäära
ebatõenä
lastela
rukki
mõtlemata
faktor
kandsid
süsteeme
taotleb
##jutused
paarisaja
otseko
koostööle
##sioonide
algava
kõigel
emade
lepitud
merikot
õhtuks
##käsit
muudatuse
hoiaku
hoiatas
projektidega
ostmise
mobiilide
armastanud
lass
hülja
##juhtu
võimekus
istudes
uudne
170
hooldust
pidevat
##ooriasse
##ktorite
hoidsid
valed
käsitlus
##paneel
võõranda
##näita
õpetajatele
valmistama
ühendriikides
vanust
##niirile
sünnipäev
kultuuripealinna
##lery
tõusma
##koolituse
ostavad
raskelt
negatiivsete
paigaldamist
keeld
plaanitud
##nõukogu
detsembrist
##ikaamera
katseid
osalus
osaline
sihtgrupp
materjalist
arvutist
õpetlik
klassika
hetkedel
kutsel
kutsekooli
sõltuvus
numbr
mõtlesime
triviaal
##uliik
suurimat
##grupid
seminarile
omavaheline
merepää
brauserid
installer
sisulise
sisulist
##rikka
nurk
telefonikõ
ühiskonnast
##põhise
loodusest
haridusministeeriumi
kajastamist
veatea
igavikul
##pakkumisi
kehva
suhetes
soodne
regioonis
sõlmiti
säilitamine
populaarsed
##otsus
psal
sissetulekust
operatsioon
korterid
väidet
ravijärje
tugevamad
põlenud
koostatakse
kallimad
ettekannete
kodanikele
üüra
jaguneb
kliendiand
pöördub
suurendamiseks
tasakaalust
kuldse
lähtuvad
veebilehte
taimede
summasid
##seade
avastati
võõrustatakse
hingata
närvi
peegeldab
hoolitsema
##way
krundi
impord
normaalselt
global
taiba
msdn
renoveerimist
webmat
varjata
visiit
ulatusliku
küsitlus
konflikte
optimeerimine
pakutavate
töötasu
järgmistel
kümnenda
##probleeme
liinil
keskkool
haldjad
põnevaid
vastastiku
märksõnu
mõtiskle
välimus
spordikooli
##jät
tõdesid
mälestuseks
ebal
hollandis
sanga
märkimisväärse
immuun
partnerid
häiritud
##matuseni
õunapuu
##peetud
suvalise
##kunsti
atraktiivne
sotsialist
ainsaks
peetris
kinnisvaramaakler
poodides
läbirääkimised
omaosaluseks
laenata
täiendusi
kompenseeri
mingisugune
raputas
vaieldamatult
pensionile
pankroti
lutheri
tõstetud
sotsiaaldemokraatide
püstitatud
eduseisus
kõlba
##analüüs
kortereid
multimeedia
kantsel
tegutsedes
vinge
lavastus
jüngeri
##ttevõtted
vabandan
aktuaalne
maksimum
logistika
high
väitnud
intressim
lightswitch
##ikorralda
lissab
füsioteraapia
kuradi
helsingis
juunioride
horison
ortodoks
fassaad
hüvanguks
olympic
äkitselt
chi
gr
hidea
ippol
mw
m2
mää
moor
od
ordin
rind
ridu
skt
sidus
sass
sùù
ssd
trii
##nut
##ty
##murd
##pà
##pala
##prise
##imaid
##rest
##voliko
##ling
##lilt
##ünna
##wor
##12
##´i
##lehel
##lehte
##alse
##inis
##inno
##ideni
##ismist
##oob
##usalda
kausta
##jani
teri
##itä
##itiiv
##useta
koid
vait
vagu
##urul
##urgi
tamma
##gele
##gedus
##asutus
magas
väiks
vähes
olude
##vadki
sepa
seistes
##miseta
saast
sae
pai
panda
##kaun
##utamisel
kõhus
##ired
omadust
raid
rased
ragn
##imeist
peaminister
valin
vallik
naisel
##emu
##bast
alta
##endal
liidest
hakk
koolik
sõnal
suuruses
suurtele
korst
kordus
käiks
väline
teatel
##ktri
maaelu
mitt
lõiku
lõige
väljakuul
igavest
vastsünd
ille
krund
viiul
mulda
tagastab
sisult
temagi
heaol
jõel
andur
ander
tänast
tarvas
kogunevad
turvise
elavat
loed
hämar
suuremale
märja
märgiks
##eldama
softi
vajas
toiminud
prits
keeras
teadvus
teadmisega
võtmise
avama
kaupu
riias
mõnedele
eksida
vabavise
justi
rippu
üldplaneer
vastaste
esitavad
ettevõtlik
vahetama
nimede
##poiss
##olemise
tunneli
õigluse
seob
ootasid
vanadest
tegelasi
inglike
surub
surutud
surnute
hinnaks
majandusele
mary
jutustab
ristis
ristida
arendamisega
kasvasid
riigieelarve
siird
korrale
kõigiga
valmisolekut
mängul
õigele
lubage
sooviga
soovijad
laieneb
##raditsioon
perede
##challe
vajadustest
arvestab
koostas
##iseerimise
##pertu
seadis
muudes
julgus
##olukorda
määramine
silmaringi
sööda
maski
kultuurinõ
investor
saavutab
sotsiaalsed
sotsiaalsete
puhastamine
suuremalt
hüpata
täitis
läbis
läbiku
palvetama
uudse
uudista
reaalsuses
elektris
eraldise
enesehinna
enesetunne
pakend
eurochalle
sügavat
planeerimise
ideega
##osad
tüüb
investeeringut
eelarvesse
looduslik
laulis
laulula
üritusele
sisaldada
tohutut
nõuanne
milleski
huvisid
seletab
paigaldamise
##rahast
madalamad
mustpea
õnnelikult
kunstnikud
lennundus
sõbraks
küünar
haigeid
puuk
takistavad
õpetuste
ammenda
püüdma
##aliseerimise
kandideerida
kõrvalekal
hädasti
kontakta
puruks
##võimalust
kehtivus
seminare
evangeeliumist
kuuleme
langetada
kaardiplo
saatja
saatmine
löödud
kajastada
pöörduma
mental
sireli
pileteid
##pakkumine
näidati
järgmisena
sõlmitakse
oktoobrini
leppinud
käitunud
pinger
arvete
##harm
##servi
tulevaste
elanikest
seinale
founda
kliendil
ootusi
alustasin
mudelit
hävitab
rongiliik
sekund
##ilisus
##põlve
ideaalis
asutati
allikaks
kasulikum
odavamat
##iseerivad
kahjusta
teistsugust
esmaspäevast
tarbimise
vaimulikud
##likkuses
tellimusi
##ikül
soojuse
tehnikaülikooli
renoveerimise
walteri
ekspordire
neljandaks
haldamise
plussid
tudeng
tihedam
nägemust
kadumine
##piima
tavapärane
metro
##inimese
##cial
emotsionaalselt
maasika
nälga
häirida
virumaal
projekteeri
doreen
##kretäri
henri
belo
belgia
selguvad
võrgustiku
suvila
kotkas
peatükis
##küsimus
tyler
integreeritud
platvormil
masenda
pihla
disainer
muinasjutu
opensef
detailplaneering
täiega
ekstra
uurimistöö
katastroofi
george
delegatsioon
sisaldu
tehnokraa
kvalifitseeritud
##suuruses
keskkonnaamet
economi
friedrich
aktsepteer
jesaja
eksportöö
šveitsi
krematooriumi
andestust
stillverk
pürksi
õppetunni
sertifitseerimis
nyyd
distsiplin
totalitaar
klaviatuur
enterprise
##konsulta
varahommikul
pessimist
lavastaja
vasikahol
abituri
thunderbird
iseseisev
vertikaal
dmitri
šiaul
6000
ang
ahn
bir
bos
basi
dee
fu
fc
fraa
fci
gaa
hum
higi
iks
iha
jor
k6
lär
laasi
py
pingi
rud
resid
utah
xi
õhul
##nala
##uure
##tidega
##hy
##hea
##himu
##adi
##py
##pru
##imat
##rdeid
##lustab
##lusesse
##88
##32
##alise
##materjale
##tart
##teta
jahu
##ksis
kak
kuk
##imur
ten
##enz
tan
tavaks
oleski
##heit
jupp
saamas
saamisel
seeni
##deta
siila
patare
arg
arhe
mey
mete
mehta
##iraa
tädi
tähtede
omajagu
raimo
rabele
näkku
nano
##umin
##umuse
alf
alle
lie
toita
hand
paludes
tõtt
tööpuud
töökaas
töötegi
leit
käimist
puus
välk
välistada
teata
loova
##jalg
##iksoo
##isaalis
ettepoole
ületanud
üleriig
##ied
##alale
maarahva
asses
inimkonnale
##usia
süm
üksil
igatsus
vastik
ühiseid
kasutatavate
jäigi
reval
reov
reimer
repertu
tegemised
mäge
tagavad
eelmised
eeldada
eelkäi
##desid
##matusse
külgi
külmaks
jõhvi
peita
##nule
viole
##itsus
ülda
alade
otsingute
tundusid
arvult
kogumise
turvas
elatud
lisavid
lisaeelarve
rahastatud
päevil
juhtkond
küllalda
teenusele
muutustega
##ntide
riiet
erineda
pühk
peakski
usulise
kartel
järgides
kohaneda
varise
kulges
kulgenud
##väela
abinõ
endil
halvaks
haritud
##unaal
põhjuste
vaimsel
soovitust
##olekust
aeganõudev
ilmumist
##päevase
jõudmas
jõudude
koolire
##ksand
taanis
unistusi
müünud
seisid
leidmisega
##itund
elutu
2015
sellisesse
õnnetuste
##vaated
kursust
pühaduse
postmar
mitmekülgne
erakordne
väikel
tür
tül
uuringut
asetada
niit
kasvatatud
isand
pidanuks
kommunaal
##kella
ümberkorral
õigete
jagades
kõrgeima
näitan
vajalikkust
pööras
125
raskemaks
taotles
ärk
äriklas
ametlikku
ametikoha
soovitavad
soovitavalt
ühtne
ühtset
koostööks
helle
pakuks
jaluta
lõppkasuta
emake
tahtmata
conne
meistrid
määrat
valgustada
mõõga
tegijate
tähelepanuväärne
hoiak
püüti
äärest
palvetada
keerulised
##likeks
võrds
välismaa
välismaalt
apel
avaldama
elektril
##õpsa
laada
mõjuvad
##kohale
hoidmise
saidid
tühjalt
valgustunud
##varju
##varustus
kuulanud
linnavalitsuses
registreerimis
investeerinud
edasise
lahendamine
uskumatult
teelõ
aktiivsus
üheski
rahvusvahelises
noorele
väljendab
valitsusele
ristiusu
mooses
füüsilisest
kujutan
õnneliku
priin
taker
jõuliselt
püüdsid
aadressid
kandideerinud
unenägude
innovatsioonist
kümnete
pikemaajal
purs
purun
salapära
varasemalt
töötuks
artiklitele
liikmetel
tähtaja
lihave
merepõhja
arenduskeskuse
##rikor
joonist
emotsiooni
veaga
##ontrolli
pärnumaal
kohtumised
isikukaitse
ressurse
kärp
jõuluvana
säilitamiseks
mahuvad
potentsiaalse
potentsiaalne
mõõtmine
efektiivsemaks
tabab
köha
pildiga
ehitis
vaevata
protsessis
off
aivo
ühelegi
kingituse
kujundatud
maksaks
leiut
ootuste
särama
seitsmenda
1938
turismiinfo
tammoja
erinevusi
uuenduste
allikatest
ajalehes
1989
rahalised
sularah
laagrisse
möld
naabri
naabrite
sügavamale
püstitada
intervjuud
süveneda
ujuma
kohalikel
professionaalne
ohvri
õhut
vajutas
tšakra
üksikis
##mendiks
kokkusa
vanalinnas
rikkunud
seinal
finantseerida
käskude
maailmavaade
elluviimise
kõiksugu
andestanud
mälestuskivi
kandev
liblika
loetelu
1950
kaplin
asutused
kuulutati
vennaste
soodsam
aspekte
arvestuses
kòige
peetruse
kuningriigi
läbirääkimiste
staatuses
üliõpilaste
uuestis
kyoto
valusalt
rahakotti
kehalise
duš
tõmmanud
kõndida
magistritöö
õnnistagu
insene
õuel
modern
ärevus
rahvaliit
tugevdamise
kinnisvaraturul
häbene
##hooldus
elanikuga
##konkursi
piinlik
egidi
bbc
juubeli
kvoorumi
##investeeringute
güm
riskikapitali
vanaeit
ümarla
##umägi
blogosfäär
kampa
brüsselis
rehabilitatsioon
lasteraamatu
usinalt
lasnamäe
vikan
developer
läbimõõduga
##mehhanis
daniel
runb
neuben
apa
ahti
bis
baari
die
fb
gil
greg
hm
hà
horm
jos
kv
pò
pest
pits
sf
ää
õil
##nit
##umisele
##hju
##kuses
##mula
##poodi
##paari
##putä
##dutse
##vuste
##gut
##geni
##gesid
##googia
##üd
##foni
##stuses
##isusega
##dani
##taba
##takt
##terv
##oomia
kada
kaine
kumba
teoorias
##ustusega
vass
vaeste
vampiir
##laps
mateeri
##haru
##mehele
olevatest
sugul
saht
satu
saite
paki
paistavad
arutanud
##kase
##valiku
täisa
omaduse
omaaeg
##ään
naiivne
##itatud
haud
tõestab
töösse
korrus
##võttu
puhuks
puiest
kirb
teatakse
teater
loosi
loomisega
##peda
võimla
kõikjale
##vigast
soos
asuma
esinduse
lukku
lunev
väljasõ
poolaa
vastutama
redig
ilon
viita
eelvii
eeldame
roni
rohtu
key
jäämine
viime
kolimine
tänavad
vaan
uuendatud
rahvad
ajastus
##ngus
tundmine
kindlus
elamise
loenda
rahale
rahastada
läbivii
vajatakse
juhtumi
arvame
lähedust
rohkelt
parts
pargis
parklas
joob
linnakodan
teadliku
kallase
ehte
saadava
vabakauba
auton
perest
vastase
esitamine
ennegi
vaimsus
vaimsuse
##eesmärk
tunnetuse
küsimär
jõudmist
õiglas
õigustada
millisel
vanaks
taasa
taaveti
unistada
##how
kohtusin
jooksid
pangast
auras
kinnita
jutte
jutule
meeskonnal
noormehe
noormehed
uurides
vaatamine
väikesel
sisemiselt
arendajaid
kasvatamine
pakkuv
pakkumiste
kogudustes
kõrgeid
##vumise
##riana
kutsikas
piirini
ebastabiil
doc
mõtetega
eleva
päkap
##väärtuste
heidab
##tiivne
seadistada
sobivaid
töödelda
koostööst
##now
miljonid
tahtmatult
comp
praegusele
##tensi
tegijaid
tõsised
investori
toetaja
rakendis
meeldivalt
õppetunde
firmadele
võrdne
alustamist
arenguga
oodates
enesear
##siooniga
arusaamatu
praktilised
gaz
sügavale
käske
##osakond
tühine
mugavad
mugavaks
valmistatakse
sõidukit
süsteemile
vallavanemaks
laevate
cache
nõuanded
mõjutatud
tähtsamaks
huvilistel
töökorras
keeldus
kujutavad
##ikivi
arutlus
hirmsasti
edendada
koertega
blogisid
menüüs
sõprad
##innalt
jälgimine
##korter
viibis
tõstavad
kling
##projektid
postitusele
väärtuslikku
pimeduses
liigume
brauserit
piltlikult
kaardile
igaviku
lill
ressurside
skoori
soodustada
kehtestamine
mõistetakse
seltskonnas
##teadus
nõupida
populaarsust
##kaan
##kaardid
efektiivsem
tramm
sissetulekut
sissetulekud
maksuvaba
tiigi
elanikku
kingitused
prantslased
arendust
viktor
agreg
indias
vägivalda
misjonil
pöördumine
kasumlikult
ühineda
ronida
lõppema
##ringis
##keelse
ajalehtede
odavama
vaatasime
1988
staatuse
arenevad
rumeeni
läänlasi
käsitlevad
niisugused
##ward
muinsuskaitseamet
kapitalismi
täiusliku
juhuslik
renoveerimine
pass
##raton
konsultandi
##ketta
mõningad
mõningate
kirjelduse
martinson
väljatöötamisel
funktsionaalsuse
nägemuse
põllumajanduse
andmebaasiserv
kasuliku
piiblis
kokkuleppel
##ikonver
tavapäraselt
##paigast
üldisemalt
rühmas
juhendaja
kuivanud
paindlik
##burgi
##gelased
tüdrukute
välisturgudele
kehastunud
tublisti
eestikeelse
hävine
##organisatsiooni
fänni
abikõlblikkuse
inspireerib
müstika
nüanss
ööbimis
standardile
fotograaf
otsimootorite
digido
eduseis
mittetulundusühingu
tulenevaid
aafrikas
##query
surevad
lennua
budismi
robotite
kuressaar
inglikaar
tudengite
deemoni
politseinikud
oranžid
jurist
show
suurusjärgus
kalendri
raekoja
nõuetekoha
eelmistel
auhindu
hämmasta
neljaline
hüpotee
stipendiumi
veterinaa
brändi
opsüsteemi
android
kergejõustiku
krugman
kõrvaklapid
rõhuaset
näpuga
imedemaa
referendum
spirituaal
netflixi
dirhami
palverä
magdale
rüütli
afganista
swedbanki
aleksei
priinits
kokkusattu
egidijus
runbjar
anima
ameri
bl
brit
cen
dru
ep
fre
hd
idi
ikt
nöö
pista
spi
sendi
uk
ucht
writer
##ngas
##ugust
##tr
##hist
##mudeli
##dalda
##vendi
##jer
##jov
##birääk
##fra
##fan
##ša
##aline
##inel
##inik
##damine
##taime
##taset
##ikaar
##tex
james
jaheda
kama
karv
kamm
katari
kuma
##jaist
##ulude
##ratoni
vani
vaig
vaia
vandaal
võidel
##lamu
##uritele
taal
##ndal
selveri
##rian
vägev
##media
tuale
olevas
juhk
supp
sau
signe
paes
patud
paugu
lagi
lausega
laure
##kaga
##katele
sellesama
##iring
##tudest
missio
rajat
peales
##rop
##back
##umusest
kütt
liides
tuletas
tulemata
##üün
paluvad
tões
tõusid
##die
tööaega
töörühma
suurtes
legaal
##võitle
välises
##ustamisel
##ustamisega
teadu
proua
##isada
ülemus
ülekand
##rele
##hkem
##aladel
sooje
##ikava
võimalusest
võimalustele
igapäe
jäiga
##istaot
eestimaal
krun
tootele
toores
multif
tagastada
rohi
romaani
küljel
sisses
headus
heameelt
andsime
peol
viiks
äratas
tänaste
huba
prag
uutes
rahun
osutas
enamgi
kõrguse
##ngust
kogukonda
kindral
kindluse
turgudel
lisainfot
inimestes
kuulsid
kuuldud
kinkida
läbipaistev
juhtudest
##lassi
ank
kunagine
prii
##kasutus
eesku
avari
avamiseks
eksitav
1900
vastan
##ilisemad
poolekest
varustus
varustust
varustuse
õpinguid
##kirjanduse
kiide
teisejärgul
##väga
piim
pihku
haljas
vahemikus
##pois
##popul
lugemisel
lugejat
õigustanud
##ressis
sõnagi
müüjad
huvitavate
notari
vallajuhid
marg
kinnipida
kohalikul
##aliidu
raket
külaseltsi
pühaks
pühadus
##järgne
meeskonnas
noorus
mööbel
ristile
##roloogia
niux
arendab
juhata
riigiga
##keskusesse
tegevjuhi
kõrgete
kõrgeim
majandada
firmast
ebatä
ebaseadus
dow
piisavad
122
hakatud
fair
torude
elusid
ärkas
ärgem
##aadress
heida
meeleparand
tutvustus
ettevõtetega
sinnapoole
rahuldada
valdkonnast
##halduse
tekkimise
tegeleme
nädalast
##ioper
##reeritud
hindadega
##vili
sööme
järelduse
sarnaseks
aktsi
projektidest
eeter
juhitakse
ostjad
mobiilsead
mobiilioper
äärel
äriüh
õpetajale
##juhtidele
jõuad
jaago
##kadeemi
keerulist
adeele
adriana
alustatakse
moodustas
elektrik
ohud
mitukümmend
##ooriumis
##vider
##hinnast
##paneku
käsud
lahendama
eelarvega
vangutas
inglitest
aktiivsemalt
nord
täiendatud
rahvusvahelised
järjekordselt
räige
keskkonnakaitse
##väljaa
nõuannet
ostan
huvidega
kunstlikult
##konstruk
ilusam
reklaamid
muusikakooli
##levinud
detsembrini
kangel
tunnistati
tõdema
nõudluse
kandidaadid
viibides
kümnest
klõpsa
traditsioone
puru
##inimesi
##võimega
pööratud
pööratakse
surmaga
serverit
tähistada
##oetusi
##õigused
mereäär
kommentaaridest
##taksin
tõsiseltvõeta
spordihoone
kajastab
tutvustan
biome
##hooned
tehingut
soodustab
reisil
traditsiooniline
selgituse
populaarsuse
efektiivsus
riskida
korrusega
sissetulekute
##pargis
arvamuslugu
##pesas
rünnata
rünnakute
täpsusega
kollek
lõhki
kaitsja
kaitsmine
põhinevad
stiili
##kolle
asutamis
##toodu
sobida
ajalehed
finantskriisi
serverite
koondab
##ware
##iküla
johan
sõidukiga
visiidi
kraana
neljandat
vàlja
põllumajand
pakutavat
korvpallik
unikaalse
argumentide
eseme
väljaanne
kaasaegne
ülestõusmis
suudeti
tagajärgedest
holland
digitaalallkirja
eilne
kaasnevaid
puuvilju
jmt
realiseerida
tagala
aspekti
uuringus
1919
ettevõtlustoetuste
peetrus
stsenaariumi
hinnanguid
võrgustik
omaosaluse
ameeriklaste
##seeria
andeksand
täiendused
virtue
psühholoog
kvant
manager
levib
protestant
tänini
paliveres
tõestanud
kirjaliku
kirjalikult
masinasse
ukrainas
konsistoorium
ansambli
jürman
##objekt
audit
##puhastus
vähimatki
auhindade
ruutmeetrit
aastaa
automaatne
arusaadavalt
optimistlik
tudengitele
vaesus
##ettevõtted
##drive
##ehitatud
ärimudel
aseesimehe
hajutatud
teadaolevalt
integratsiooni
karikavõist
kardinaal
kolleegid
juubel
eelistustest
plahvatus
ereda
taasiseseisv
konsultantide
parvla
kristiina
vääna
##orkester
töövõtja
priske
kemikaalide
sisutüü
harvem
ilvese
neoliber
demagoogia
enya31
haldjapesa
##instituudi
medell
aigro
stereotüü
dynami
zimbab
läbikukku
kaardiplotte
foundation
magdaleena
uchtd
katariina
aule
aima
baa
bre
dream
eise
fassaadi
gala
gab
hoonesse
irv
jàà
ora
tril
vta
volik
vinguga
üma
##ängu
##tiku
##susel
##museks
##ora
##omist
##opera
##put
##rp
##rine
##rimin
##vena
##jes
##gg
##gitud
##fali
##16
##zer
##alselt
##elle
##eldi
##elisi
##dades
##dafone
##tarkvara
##terite
##teat
##tekst
##oole
##vamaid
kari
kant
teilt
##isead
##ulnu
##ilugu
kokka
kops
kopsu
kodudes
##ney
etn
vask
##urgia
##utor
mann
väega
olud
olme
tuudi
##html
seg
##koe
##kod
##kost
saag
saatsid
siber
pausi
lazy
kõnes
mõjul
##kuda
poku
##liidi
raz
rajale
valk
valituks
narra
naela
##emüü
##bank
alistati
hammas
koostab
sõidetakse
töötuse
leitav
käimine
teataja
##mistel
lootsin
võimust
##paiku
##pakk
järsk
ved
maakondade
ass
##igna
ergu
üksuste
konu
konsen
vastutada
põhim
jäime
reisid
mäest
mullusega
eelnevad
##hulga
peala
tulime
jääva
##unika
##geline
kolum
##päevil
tänavuse
huka
vaidlus
eluhoia
veenev
veedetud
tarva
##utiga
arvuka
kogumaks
pärim
päril
päringud
lisamise
lisati
##puut
hämmast
hädalda
märgua
kuulma
kuulas
kuulasin
läbivad
juhtuvad
ankee
toimingud
teenides
teenustele
korralikud
avanenud
raafa
kirjutamist
kirjutamisel
kirjutatut
saadame
edastas
pürgi
##eleid
maksmise
peree
seatalk
hakkate
võimalikest
haljala
tipus
harja
liikusid
nimetanud
põhjustavad
mõttele
tunnust
jätmine
tunnetama
sõnastada
algne
kakskümmend
parajalt
esimesse
kristlane
##muuda
marm
marga
kodukas
mingiks
##järele
pealik
riikidega
väikseid
tülikas
uurime
tugevate
kooliga
väikesele
sisetunnet
isanda
õppimis
pakkumised
kogudusi
##kõla
lubadust
roosta
rooste
kirikliku
kirikula
soovile
kutsusid
konkurssi
##ikomisjon
toetusel
ebaefektiiv
pikali
õnnistuste
teemadega
plaadi
sp1
torma
kanded
kujuga
elemendid
ärgi
ärgu
arvestamata
varade
mõistust
töötamise
seadusele
seadustega
lahus
laheneb
lihtsamalt
ühtsuse
lõpetama
lõpetamise
raamatutest
##sioonid
rahulikku
##uksid
##kutsu
poliitilist
leppe
meistri
määrati
rahvatants
võistlused
vilju
villu
põhjalikku
##põhi
hoiaks
tekitaks
##teenust
sättis
mängijatele
ostmist
meeldima
trik
hüper
täitub
filmis
võimekuse
piiravad
esindajaid
omavalitsuses
alustan
aplika
organist
moodustasid
tõenäolisem
kahtlused
enesekindlust
segab
tingimustega
praktikast
üllatada
vähendama
otsige
valmistamise
eesmärkidel
lugupeetud
odavat
meenutavad
lauljad
hiid
card
camp
toodetakse
palgaga
sünniaasta
tarkusi
kolmandale
##plaat
spetsifika
uksele
loomadega
koormuse
rollist
säilib
negatiivsust
paigaldamiseks
kergemaks
olulisemat
kiireks
ohtliku
vaesed
arvutuste
tunnistatud
blogides
kevade
##tsionaalne
meetode
kandideeri
##vahendi
ülikoolide
hädad
pääsesid
origina
liiklusseaduse
tõstma
näidete
postiga
sügiseks
langeda
tsir
liigse
##inute
pets
emotsioonide
kaeba
kroonika
sihiks
ettevõtjatel
tutvustamiseks
##vaatne
kindlusta
kärbe
puudumisel
kestva
traditsiooniks
jõulupuu
annetus
arhitekti
sidemeid
pingeid
taheta
toetusraha
potentsiaalseid
mõõtmise
efektiivsemalt
treeninguid
erinevatesse
suhtlemiseks
vikmani
##hooaja
remote
suurendamise
relv
juunist
särav
toidust
lehekülgedele
respo
valmimise
##keskse
nõrg
kaaluka
450
masinad
puhastamiseks
sobinud
piirkonnast
positsion
teostatav
kunstiakadeemia
graafik
rahaliste
##imängu
reklaamide
läänlast
märkama
märkamatult
minevik
orgaan
pehmelt
arvamuste
##teeritakse
jaanipäeva
##oard
nimekirjast
aknaid
ühendatakse
mentorlus
abiellus
##üritusi
filmide
muuseumile
elektroonilise
haarab
vodafone
ulatuslik
##hetke
tööjõudu
##lemmas
##ülesanne
patsientide
lähima
##piira
##piirangu
bänd
standardid
läbiviimise
läbiviidud
kuritegusid
grauber
jalgade
acc
laiemas
loetletud
jäätmete
turumajand
truu
koondunud
kaldale
puidutöö
garanteerib
õnnestuks
##vajadus
levitada
menetlus
liikmesriikide
misjonäride
palav
seminaride
kabeli
kultuuriminister
näidisko
massiliselt
originaalsuuruses
katteks
pesemis
ehitustöö
integreerida
temperatuuri
luther
tõsteti
tahtest
loata
sotsiaala
riigilõ
maanteeamet
volikokku
eksperiment
edetabeli
rentida
hukkunud
malle
asjaolud
normid
töötlemise
motiveeritud
alamkatal
alateadlikult
kasutusliidese
lõigatud
baltisa
imestas
kontseptsioon
georg
deemonid
##omadused
identiteeti
leibold
quo
service
economist
retoorika
alagrupis
tapab
murelikuks
lagunenud
kvalifikatsioon
aksepteeri
edetabelis
surnuaia
pangal
meeleldi
##meetodi
halvemaks
diskrimin
##analüüsi
iirimaa
feedbur
kanuumat
portugal
harmoonias
stabiliseer
ekstreem
koluvere
fänniklubi
tingib
samsung
askelda
informatiiv
ülearu
riistvara
greater
##jaolt
prillid
##relioosi
psalm
lissaboni
hideaki
justiits
eurochallenge
aumär
clo
dile
ib
if
iir
jpt
nisu
pett
rool
skä
tk
vö
vim
vits
vendi
##ähta
##norm
##umisega
##hena
##kl
##kriteerium
##sla
##mud
##muti
##osi
##ostu
##pter
##ier
##imate
##dena
##jee
##gusi
##bot
##filt
##36
##ideed
##maist
##tavatest
##ooj
jahti
kain
katust
kup
kuudel
##imensi
teht
temaatika
##isemalt
##uliselt
##itori
##itoa
##ilid
koma
##raud
##laga
manda
majal
masti
maiste
olu
##mehel
oletas
jura
##stajad
sihu
pasta
pakse
##kauge
##valitse
täites
mõjud
##lio
nähti
valves
##juhend
##umõ
alfa
alveri
eestlast
lige
##kivid
tulevane
teekonda
##endatakse
töömehed
led
prokura
põde
loost
ettearva
##ustegev
ületas
ülemises
##pani
##pavil
##viimist
soone
soojaks
lõks
südal
##uaeg
##tteid
üksus
ükshaaval
kasutaks
reaale
rekordi
saabuvad
toomp
võibki
eeliseks
eelistatakse
eelmistest
eeltaot
sisustada
##itudes
jõhk
jäämist
tänavate
hunnik
vaadete
eluea
elukutse
##vitakse
vastumeel
otsisid
enamjaolt
vähemal
tarmula
kogumik
lisanud
sotsid
küsiks
küsisid
juhtidele
toimingu
##kasutuse
avastab
ehmata
vabatur
peaksite
usud
õpid
kihi
kiidetud
##oskust
##ansi
täiustada
##uriik
ettevõtluses
tiik
tihenda
momendil
vaheta
vahetab
vahetamine
põhjendus
avalikust
##oleid
puuduste
tunnetega
tunneksid
milliseks
infole
rasv
unista
huvitaval
kohtume
rõhk
rõdu
abivahendeid
kristlus
elle
elutöö
101
##imistel
jutlust
vääriliseks
järgima
##bek
kursus
pühakirjad
postkast
erandit
möödumist
uurimisel
koolitada
kaitsepril
õppimist
stren
jagamisel
südamet
vaadatud
##sson
toetusest
##vanemad
1200
kandida
##minut
kontroller
##jutt
arvestatavad
korraldame
korraldamisel
##aadil
heikki
kannatused
võitjad
tegutsemist
helkur
miljonist
protsesse
tulevikule
haapsalut
##käit
valgusest
##ikasse
sööki
aktsion
kultuurikeskus
muudaks
muudame
hoiad
hoiatab
tekitasid
hingerahu
investeerima
164
meeldivat
õpetajana
palvele
istutada
hoonestus
##iliidu
uutel
##õpilas
kribal
##saat
##kohaks
öelge
eurots
lihulast
rajatakse
astudes
järeleand
##näht
sammul
linnavalitsusele
registreerinud
registreerunud
vigastada
jürist
kõnet
ümbriku
##ugude
loodusliku
hippi
ingliabi
kultuuripära
sisaldama
müha
##plaane
##plaanis
spetsialiste
##leppe
jalanõ
sõbraga
edua
ootaks
ootamas
tarbijale
tagajärje
viibida
hinnangut
voolas
rannakala
bakala
##koormust
langevad
nurgas
kaalus
parandama
tutvustamine
ajalooga
isikuid
kindlal
##hoonete
kärpida
näidates
valukeha
kriitiliselt
regioon
indig
selgroo
selgitusi
kuuluvat
märtsist
säästu
##kaarti
koodist
püsiv
potentsiaalsete
##harjutus
plaanitakse
köst
korterelamu
ümbritsev
ümbritsetud
suhtlemise
põletada
loengud
rääkimine
kingitusi
kategooriasse
##imuusika
tiitlit
##hooaeg
rakendamist
niisamuti
uurimust
uurimuses
ootel
turismiettevõt
mootorit
rongiga
##karja
sobis
kasulikke
kaduda
graafika
##iseeritakse
edukaim
tarbimine
hingamis
pilvede
tellimus
viljandis
aknas
hermann
sügavamalt
peapiisko
##mängud
nähtust
pasuna
talveks
planeerimis
kartnud
hirmuära
##üritused
##kodanik
voi
eksamit
genereerida
teenindada
ostuks
maksimaalse
prohvetid
käskudest
##kindlustuse
maailmavaate
juhendamisel
rahuldamise
##visiooni
liidri
valmima
lühikesed
mandel
järsult
digitaalse
miinimumpalka
eilse
lumma
klein
uuendamine
vidruka
liitumise
elukutseline
põhikoolis
paratamatu
beebi
sakslased
##ikirjel
##rantide
maksumusest
luuletaja
ülesehitus
kaheksas
puhverdamine
nigel
kliimas
masendav
otsimootor
protokoll
mittetulundusüh
otsinguse
seisundi
jubed
kõlbel
teadmistega
##muuseum
saunas
##pakett
otsingumootor
otsingumootorite
iisrael
##sarna
kaabli
koolitustel
koridor
konstruktiiv
järjepidevalt
##nõuded
kaastund
viibib
popula
toredaid
ekraanpaug
absurdne
bluetoot
ärimudeli
elementaarne
enesestmõiste
tsiteerin
ilmastiku
operatsioonisüsteemi
indiviidi
làhe
raamatukogus
sümboolne
tsitaad
##blog
mändla
vaatenurgast
jõululau
bränd
vastuvõetav
televisiooni
##tööstuses
kaotusseisu
hoogsalt
califor
postkontor
veebiserveri
##huvilised
elustiili
usuteaduskonna
palestiina
huumori
aasias
konfiguratsiooni
imeilusa
veteran
järelevalvet
tseremoonia
eksklus
prioriteedid
ikooni
nebokat
ärkvel
lennuakadeemia
kuressaares
teadupärast
##populaar
bakalaure
ada
aime
austatud
aasa
basse
dll
empiir
fla
figu
kää
mid
rc
rimi
ult
ufo
##uter
##tš
##telt
##ture
##kinna
##pen
##püüd
##doks
##venda
##vesid
##judes
##lised
##üles
##bem
##öelda
##žiss
##stro
##setus
##semina
##lejad
##maju
##taol
##ikalt
##tenn
##oolika
##vani
##vang
kais
one
##aatide
tei
ted
teoloog
teieni
##enet
##itunud
##itoot
##ilo
##ilille
##rahv
tax
##ndel
malev
matta
maeti
tuulik
tugit
sektsiooni
juvent
##stamata
seepeale
pap
laused
intsid
meeli
##utavat
kõnn
##valmista
täitus
##tiim
poh
poistele
kasusaa
rausi
peaval
##tuma
##jub
alist
ministri
##tsist
topi
##ikuul
happ
paluti
tõkke
##mass
##kei
##kega
##ustavalt
teatanud
teaching
##mistele
põlis
loote
ettemaksu
ülemaail
ülekohtu
##reformi
##olut
##olfi
##vima
mittes
asko
milleni
väljanäge
väljataga
eriliste
eriliseks
üksind
##istamiseks
reg
rele
rezhi
##itseda
männik
krunt
viiv
ütelda
tagasit
eeldavad
##matuses
jõuka
kollase
vaidle
##itsust
ajasin
hoiu
vähemus
targu
tundega
kogum
elamus
elasime
lop
suurepärast
kuulab
kuulutatakse
lähedusse
##ition
jooma
teadmise
teadlikkust
teadustöö
##kasv
eksped
##eliga
vabastab
maksuamet
sealgi
rivist
usd
üldkogu
isikul
##load
##ilisemaks
karuse
poolega
kohapealt
vargad
pille
esitasid
##kirjand
kip
samba
##raapia
lihtsustatud
endises
ettevõtlikkus
tih
moraali
nimeta
nimetame
mõttekoda
soovidele
kirikuko
ilmuma
tunniks
tunnustas
puudusid
seostada
kordatege
algse
paljus
unit
tegelnud
müüvad
##etatud
parandusi
abile
abiõpetaja
jälge
tass
tasuline
aug
auks
auke
102
väärikas
suhtub
suhtuvad
suhtleb
##aliini
tuttavat
##elarv
##beraal
kurta
kurvaks
mitmetele
eraoma
erakonnad
tehnikat
vaatamist
väikeseks
kaitseta
keraam
kasvand
õppides
õppisid
##kusse
pakkumuse
152
##keskusest
mängides
string
saaksite
miil
piirkiir
pikas
kuuest
üldsegi
spon
nely
taotluses
elusole
##oogika
vajadustega
headel
korraldati
töötamine
projektijuhi
selgitatakse
sobivaks
otsese
telgi
muudel
muudki
##poolsed
kustutatakse
tegutsemiseks
##kraan
nädalad
merele
interj
##käigus
paati
kirjast
näeksid
võistelda
kultuurist
kultuurikomisjoni
tõsisem
jeesuses
saavutus
sotsiaalset
sotsiaalvõrgust
suutsime
162
kiira
mobiilne
õppeaasta
filter
teostus
teostatud
salm
##võtja
##jaamad
istunud
##tööstus
network
piiramine
reaalsed
##aastased
kompil
##iliha
hoolduse
mooduli
kahtlase
külastatakse
##ander
ütlemata
joa
##place
ulatuda
loobub
väärtuses
arusaamine
praktilist
hommikust
pühi
käsper
planeerimine
##bell
kuluks
##nädal
##määr
registreeriti
registreerimist
kõnelevad
templid
blogijad
laulma
##niiriga
pikkusega
järjekindlalt
reformatsiooni
ringiga
##ingutel
noortetöö
üritasid
üritame
tänulikkust
##koolid
taotlema
sinagi
keeldu
hääletada
organisatsioonis
arutleb
sihtotstarbel
tunnistajad
ammend
blogger
ootad
fortu
pahad
##mentide
miljonite
liitumine
##värvid
valikuga
unenäost
mõtlesid
purjela
mainisin
suurimaid
varasematel
sundinud
kaheksast
taevaisa
##tions
##tional
saavutamine
popular
saatke
##põhjal
löögi
nemadki
ressurssi
skeemi
käru
lausub
medali
suhetest
selgesti
##firmadele
monson
lähedasi
robin
puhtana
##tegevus
teemadest
ettevõtlusinkub
potentsiaalsed
trag
korterisse
põhivara
ekspordile
väljuda
kusagile
baltimaade
tugevama
autoriteet
fondist
konfigur
naljalt
rakendatakse
vasakult
kasvuga
lasket
arvutiga
variandid
1933
ajakirjas
jumalateenistusi
rongid
tagasihoidlikult
emul
kaevandus
olemasolevaid
masinat
##kahjust
veebilehtede
visati
visatud
omanikuks
aadressilt
indeksid
valmistuda
##asutustes
pilved
peegeldus
tajub
##haara
hoolitsevad
##hüppe
##oaktiiv
kruus
analüüsib
eraldada
franc
nõustu
kreegi
##fondide
õudust
planeerimisel
pulma
krede
mõningase
kanadas
reguleerimine
konfliktid
võõraid
päikesel
pimedaks
##hästi
liinid
haldjas
bändi
##ikonkur
pealkirjaks
laiemale
paindlikum
viskasid
teineteisest
lumes
identiteet
remontida
innustab
vastupidavus
veerg
abikõlblikud
laulavad
ettevalmistatud
nurgakivi
seaded
##ssidest
kodulehekülje
plastik
rahakoti
tänus
kirjalik
tõstetakse
silverlighti
pàrast
sertifikaate
sertifikaadi
sertifikaatide
paradiisi
aretus
konteiner
tõmmatud
asjaolusid
jätkusuutlik
tulenevate
läbimõeldud
sümpaat
alandlik
mitmesugused
säärast
esivanemad
kutsehariduskeskus
konservatiivse
konservatiivne
rull
##kanali
krediidi
deskt
põhitegevus
kantselei
hapniku
rippuma
kinnistul
egip
kõikvõimalikke
kuhja
põrandal
arendustegevuse
alltöö
visuaalselt
realistlik
informeeritud
hunti
vello
##käigust
viitsinud
cs3
kippus
spetsialiseerunud
pisaraid
oksjonil
enesetapu
tolliamet
kampaaniat
rebane
sotsiaaltöötaja
tuginedes
sünkron
rõhuasetus
eluaseme
entusiast
kompensatsiooni
iseäranis
##rõõm
radioaktiiv
humanitaa
alljärgnevalt
primaarvõt
jagunevad
devrea
meistritiitli
müügitulu
tsivilisatsiooni
suguvõsa
miljöö
ümberasu
horisontaal
mustpeade
##kadeemias
##järelevalve
mühatas
eduard
bakalaureuse
ave
austab
ajel
dar
dead
fe
fal
gi
green
lyn
mesi
moto
non
naar
ral
rig
rudu
ster
ud
uilli
zune
äk
ürg
šoti
##unn
##uhinda
##tlus
##eur
##koodi
##sala
##aste
##oga
##pöör
##positsioon
##iin
##õnal
##õukogu
##rida
##viir
##gest
##üht
##wea
##fin
##66
##13
##zé
##yan
##99
##seli
##sent
##ident
##tahv
##udus
##ooma
jahe
##gaas
##vamat
kaat
##eek
kuub
##aaegu
##isemad
##uld
##ulust
##ular
##itustega
##news
etc
##urunduse
##urünna
tajuta
tajusin
##ndunud
##siit
maid
maala
majutust
vänd
väida
väina
väitel
tuim
jubeda
sup
saiti
sirel
pate
laha
lame
lavale
laisk
mei
kõndi
kõnesid
omadest
##tias
##liidus
rajas
peatäna
##tumad
valgas
valikust
najal
natsion
muudele
küte
alu
alusele
ligil
milla
tom
tomat
toast
hammaste
palgas
tõuseks
##dias
tööjõud
korrek
käidi
käitus
punt
kirch
väld
välgu
##ustamisele
##ustarkvara
põik
loomisest
üleho
ületavad
##paket
##viisa
järelda
maamaksu
maapiir
soojas
asustatud
inimväär
eski
väljaõpe
poolik
kohend
igapäev
konstant
põhir
##istav
reiv
resear
mäel
viipas
osaühing
osavõtt
endamisi
muld
meestega
sisustus
peip
##madel
##hela
tänas
hund
hukkus
vaadel
vastuvä
##suu
haabu
kõrts
elatakse
##arenda
inimestena
kuulutus
keskkondades
keskpaigas
küsides
juhtun
läänes
siinses
jood
muutustele
teadmatusest
##kasvu
eeskirja
##tsioonidega
kauneid
mõnekümne
##huvi
##aarsti
edastab
vabavis
sealsed
rihma
kardad
##estatud
esitamiseks
kullis
kulmin
kiida
kibest
##oskuse
võimalikust
##uriel
abst
##usast
##usaeg
hark
vaimseks
vaimsest
vaimuga
tunnist
õiglus
taastab
kiirendus
surus
paradoks
hinnates
kohtuma
jooksin
jooksutada
kristlikud
kaasamise
tassi
109
marsru
##vaataja
tulijaid
##kondadele
päästab
kurva
kurjast
kurvasta
pühakiri
eraisiku
tütart
noortega
hiljaaegu
ristmiku
nihku
kaitseala
lahendusena
kasvava
korrastada
leiaksid
##keskused
kogudusse
arengud
plat
jagamiseks
majanda
konkureeri
toetusega
mõtlemisega
raskete
torusid
torkida
neljale
mõtestada
suunamine
korraldamist
mõistet
töötan
jahimehed
meelepära
tutvuma
tutvumist
seadma
selgitavad
programmeerimise
lõpetan
lõpetati
oskama
julguse
julius
##kuludest
valdkondi
loetu
tootmises
sündides
##ireklaa
umbusal
##pead
tahtjaid
merle
interna
hindamist
söök
söövad
söömise
##tenä
rahvakiriku
kultuurikesk
kultuurkapitali
muudatust
loomuliku
hoiatada
##riigist
jeesusesse
##gilised
ostjale
imelikku
väiksena
äriühing
veebikesk
täitunud
täitmisega
jõuaksid
jaako
võimekust
uudset
võrdluse
esindajatega
reaalsete
kullakesed
hooldada
ohus
vaikis
vaikust
oodatust
##kohaga
vahendit
hoidsin
##fektuuri
käsik
senist
tühistada
rõõmust
mõeldav
vähendamiseks
valmistavad
värvitud
registreerimisel
edasimine
süsteemidega
amster
laetud
##kandjal
kilp
järjehoid
keskkonnaga
keskkonnainspektsiooni
kontrollimiseks
ürita
venis
füüsilised
füüsilises
põhjamaa
##kilomeet
häälest
kerget
meetmete
suuremahul
lahkumist
instin
arvutid
lõunas
jätkame
valdava
polekski
menu
pahane
##valdkonnas
nõudma
kodutöö
##eerimisele
baro
esileht
salata
käekäigu
magasin
reeglit
keskenduma
keskendutakse
iseloomuga
liikmetega
punast
##õpetajad
lembit
vihja
langema
joonistada
spordiala
spordihoonesse
nähtavad
funktsioone
valitseda
parandamine
kaetakse
lillep
vorsti
ettevõtjana
kärpe
kõlama
tehingud
iseendasse
imf
imre
hõlpsa
atla
pangandus
õlut
sääste
##kaardiga
energeetilise
potentsiaalselt
veerandaeg
efektiivsust
##meeskond
##eenuse
arenguruumi
korduv
korduvad
##juhile
maanteed
köit
pärnusse
suhtlemist
usaldab
foorumit
pöördusid
etapil
särab
klaveri
naisega
tsoon
mootorsõidu
andmebaasiga
uurib
visanud
kaduv
kadumise
staatus
päästetud
valija
valijate
hooleks
kvaliteetset
spetsialisti
kujutis
koduleht
rumalad
tarbida
##punktis
tajuvad
pehmed
koondatud
põlvkondade
intra
rikkust
valimisliidu
julgesti
julgustada
reageerib
taizé
vahendaja
preten
spetsiaalne
ajutised
kiivri
1929
prügiveo
tihedamini
õhust
publis
sidrun
puhtuse
esinumber
pingeline
liinide
klaasist
750
finantseerimis
##keeles
vastastikku
tolleaeg
taustaks
action
välimusega
installeeritud
rockil
dante
sõbralikult
välisturule
mälestusi
mälestused
salvestamine
vastutustunde
puuviljad
ideaalselt
piimameister
iraanis
ettekandes
vidina
tervikliku
elukutselised
eelnevast
ametnikele
veerandfinaalis
sugulane
skydrive
##ülikool
arutati
deleg
kiusatus
##vabalt
taastamiseks
maksumäära
psühholoogia
nüansse
autosõit
relvastatud
trükitud
samasugused
sotsiaaldemokraadid
puurka
mõõdikud
vatku
lükkama
pensionärid
magistri
parameetrite
lätlased
veendumust
vapimär
iidne
##objekti
ebaõnnestunud
plugin
##iruum
targemad
klastri
klastrite
777
põgeneda
põhitegev
hiinlaste
tarbijakaitseameti
vahtra
registreerima
hüvitist
kergliiklusteed
piiskopilinnuses
vigastusi
codeple
rikkaliku
vendade
kongress
kongressi
wcf
wikland
bbl
raskustes
elementide
##platsile
benja
adekvaatselt
inflatsiooni
viiendiku
poolteise
lorenz
ajavahem
##suhted
lightswitchi
sanatoorse
illustreerib
kentsakas
näpunäiteid
raudteeta
piirdub
##potentsiaali
taastuv
erivajadustega
jõukohane
singapur
ühisgümnaasiumi
mõttetalgu
omafinantseeringu
ekspertiis
ettevaatus
järeltuli
kataloogist
allergia
primitiiv
spurdi
grill
uustulnu
sinergi
diagnostika
assembly
nsvl
asünk
revisjonikomisjoni
otsekohe
eraldiseis
raimond
liepa
kaplinski
apache
eelviima
dynamic
##imensionaal
toompea
eranditult
peapiiskopi
ülemaailmne
nelyub
desktop
amat
avat
ahv
anar
bot
draa
drast
eü
eha
eria
epub
fie
ini
itsi
kalt
musi
pudeli
ritta
sd
tina
tsen
user
vig
üd
##nce
##nsamb
##uva
##tusta
##hid
##hik
##evade
##ani
##plast
##rö
##rood
##dusel
##vused
##linn
##cm
##yl
##lennu
##aluste
##dat
##damise
##dami
##teni
jae
kaste
katavad
kamba
onnel
kub
##imiselt
##imistele
##jaje
text
##isevad
##uliku
##isto
##istunud
komist
##ustom
vaike
##iile
##iiii
tahke
##ndub
##gemine
##utusel
selgusid
##riumis
maz
mappe
olusid
##haige
##metele
##vadel
oleval
##kodusse
##komand
##misena
suven
saj
sign
paisa
arme
arti
arhi
arula
inval
##kari
##kavade
##katastroo
kõvem
##vallas
##sate
ratas
ratsa
##imeel
##rong
##bara
albert
minim
##endis
läve
##ikujul
##bioot
tõendeid
niiöelda
leides
kätes
välisse
välistab
##ustamisest
proxy
loovuse
neitsi
##peole
ettegi
üleöö
##olog
järge
maades
mitmenda
asumist
##eering
esik
luure
väljarä
kohtab
##tsete
kasutage
jätaks
##enese
##enema
rehe
reži
mägede
viitasin
##ikega
osakond
osaduse
mulluse
roht
romaa
romaan
##matta
##matul
jõhv
peole
tulgu
nõge
nõvale
##unime
##ruga
enama
äratada
tänades
##vatöö
veeteede
alas
alasti
alandada
otsusele
enamikus
tundlikud
arvutus
koguvad
häkk
häbe
neidki
source
juhtkonna
juhtisid
##sidest
toimingute
toiminguid
liial
liialda
pret
teenustest
kaasik
kaasus
koosviib
joost
muutsid
teadja
avame
raami
ajaline
erinevast
usuline
iso
isole
##low
vastates
kartus
karikas
karmid
seati
seatakse
varustada
õpin
õpitud
kindlale
pizz
halja
tipu
moment
vahetatud
liikmeline
põhjendab
mõttemust
avalikkus
vaimsele
soovidest
ilmusid
jätke
tunneks
taan
unistuse
tegelikkus
sinuni
ingl
vallaga
jooksva
rõngas
andmetele
majandusest
kinnitati
hilisõ
väärika
status
türa
koolivõrgu
asepres
sisemus
kaitsev
lahendusest
kerdo
##protsed
olemegi
isamaali
automaatika
peetava
##keskusele
mängitud
luban
lubaduse
ettevõttesse
roost
majale
näitaks
kutsudes
oledki
##tustel
##ikomb
piiride
piirkondi
kolmvee
mängujuht
plaat
spurt
jumalal
neljaks
##teedi
##jutu
katma
ärikon
##tory
töötajatega
heh
meelea
##tiivselt
##pert
seadistamine
lahked
ühtmoodi
kaarel
sarjas
algama
algatas
##poolselt
##kull
kõigilt
jalutades
poliitilisi
haapsallased
tegelemiseks
##oliks
õhtuni
##tõmbe
isiklikust
masing
rahvaga
öövel
rahvuslik
tekitav
##teenus
jeesusest
säär
juhina
sotsiaalministeeriumi
suutlikkus
proovimiseks
virise
äripäev
##ruktuur
hõiska
läbimiseks
salme
firmaga
piirama
võrdse
laastus
vaikides
segama
paigus
valet
tingimustest
hommikus
##menteer
saidile
käsutuses
senikaua
valgustus
mugavus
politseia
##üksuste
valmistamine
registreerumine
vigadest
positiivsust
##ception
ühendused
tõlkis
blogija
blogipost
laevu
laevade
##sõnad
killust
##kindlad
töölepingu
##julge
ristius
kolmandast
##ession
mõjutama
tugevdab
loomapida
negatiivselt
kerged
kunstis
lahkumise
##ikaator
augustini
vältima
220
brasi
sõlme
jätkama
sõitja
sõitjaid
##midti
määrus
grupid
gruusia
nõudlust
kandideerib
esmamul
mullune
kümned
serge
saladust
igapäevaelu
magab
mainitakse
ettepanekut
##koormuse
##poliitikas
artikliga
ühistöö
liikmele
lemb
mahutab
telefonide
##veega
liigutused
tähendusega
parandamist
sihikind
teaduslik
isikuand
võrratu
biokü
kehvad
summade
sõlmimise
kestel
kestvus
##ikutelt
tekstist
tekstide
pangakont
monitor
novembrini
märtsini
mahuks
ruumidesse
issandale
energeetilised
kaunid
##ugeja
##otsust
rääkige
suurepärased
treeningud
pildile
ümbritsevat
virtuaalses
üliõpilas
tulevased
elanikkond
airi
alkohoo
##read
##konnaliik
uurimusest
ootustele
levinu
külaline
ulmel
1948
innovatsiooniosa
keerukate
keerukamaid
##teaduste
tunnistasid
klaver
klahv
1932
lubasin
rahastamist
tagasihoidlikud
olemasolevat
veebilehti
veebilehed
suleti
piirivalv
hulgale
odavamad
suitsua
allkirjasta
reinaas
reinola
kvaliteetne
kohvikute
hingamise
##punktist
paiknevad
petersoni
##ingimusi
pühitsemise
intressid
julgustab
sulgemist
berliini
pretend
keerasin
sõrmus
tammet
ettevalmistuse
ettevalmistust
külastust
külastused
sagedus
laiapõhjal
haldamiseks
kuursaal
madalal
õhtupoo
##plaanid
ekspositsiooni
ühistransporti
##taani
abikaasaga
sooritatud
ähma
korvpall
lendama
lendavad
acid
spordiklubi
puhkeküla
kodumeeskonna
##bilisatsiooni
cons
vastuollu
soetatud
soetamiseks
religiooniõpetuse
sümbolid
asutustele
seadmetega
voodisse
näituste
eksisteerida
tantsupeo
jaotatud
reguleerija
devalveerimine
võimsam
operaatori
moraalne
staadion
1917
argumenteeritud
sündima
klubis
klubide
##ikäes
sugulaste
##omy
hennu
kontaktis
uhkust
##praktika
##vabriku
kabin
võrkude
##ttevõtjate
pendel
koduleheküljel
protektsion
tänutu
tahtega
pàikese
ukrain
programmeerijad
installida
##inspektsioon
valada
pereliikmete
konteineri
korvisööduga
jätkusuutlikkuse
kriminaalmenet
ärganud
meelelahutust
lahedat
skandinaavi
##saarel
lätlaste
sihtturu
moskvas
skautide
peaspetsialisti
loetav
debatt
##iruumi
veidemani
sooduspilet
dokumentaal
dokumentatsioon
dokumentatsiooni
tutvumiseks
niiskus
kolledžis
lootusta
sessiooni
ekraanpauk
veebirakenduste
isiksus
majandustegevuse
kontorisse
operatsioonisüsteem
viilma
depressiooni
tööülesannete
õrnalt
sibula
ekskursiooni
kullapaid
lisandväärtust
illusioon
võtteid
õigusakt
solidaarsus
hyper
keldris
inflatsioon
sassi
ristmikul
kantsli
instants
instantsi
manipuleer
kommuuniõhtu
šveits
##voogude
etteheiteid
jeff
erakindlustuse
riisalu
geneetiliselt
engine
šokolaadi
##kommunika
solovjov
##kantsler
paljasmaa
kinnaste
kätke
puulaevaseltsi
ohjelda
tšempion
volitatud
rutiin
nostalgia
pallikaot
alahinnata
kohusetäitja
##moodul
ettekirjut
struktur
hüdro
hiiglas
policy
belovas
šiauliai
meyrin
digidoc
paesüld
kardinaalselt
7000
8000
adam
aetakse
bil
big
cy
dol
don
eos
eow
kw
kriteeri
nika
nood
pk
pitseer
rinda
she
watch
ämma
ùt
##nen
##nikult
##nimist
##uhind
##hir
##hot
##kg
##summa
##ajale
##mur
##mpsu
##pise
##iis
##rikast
##vc
##venta
##lini
##ütar
##bä
##17
##cke
##òò
##let
##isusele
##ellu
##tavasse
##teco
##tempera
janar
##usil
##vatesse
kaju
kapte
##aati
##aardid
##isesse
##enesid
##ilükka
##naga
##ratta
##nemist
võlad
##utid
##utit
##rica
mahti
mach
##haigus
##metest
tuur
tuhk
seel
##hew
##ering
##komis
##korid
suppi
##stajate
saajate
paina
laks
arvi
argo
##katest
##kateg
mett
##utasu
##ööstus
tähti
omase
omapärane
##kuuri
popp
pomises
kasutu
##liitu
näkk
näole
näost
##tutele
##org
valdab
nael
##umile
allik
minist
eestvõt
liim
liidese
tules
tosin
palvel
teeksid
teesk
teeäär
sõela
sõdala
sõitsime
töötava
tööpuudus
suurenemine
käid
käpa
kirt
kire
teaksid
teadete
põnevad
loodav
võimsus
ülekoht
aastatest
vedele
soorit
soorita
asutada
asudes
##ikasti
##ikanal
inimliku
lõin
lõikas
##eerub
luuka
väljaval
sülle
kohut
kohalda
##duva
kasutamisele
jäik
reigi
rehv
##itsema
##itsevad
krõ
saabusid
toodavad
viiele
##ikeks
osadel
sisuko
keeli
andmes
pera
##nutest
##psas
tulusa
jääksid
paljuks
tänavat
tänavatel
rahustada
how
alanda
vastukaja
otsid
otsimise
osutab
##ühendust
turisti
elatusta
loal
##arh
inimestesse
kokkupuude
kuuldes
kinga
kinkinud
ansip
toimimist
toimumis
parki
prill
siinjuures
euroni
muutumist
muutumise
teadust
teadke
teadlasi
teadlikkus
tervitus
avavad
avarii
raad
kauaa
ajalukku
edasta
püksid
maksus
maksmist
perre
usuta
üldkonverentsil
isal
vastaseks
silmn
karistuse
poolekese
poolekesega
pilli
kuludega
kuller
kiitus
kibeda
##ossi
enneole
##raamatus
abistada
ettevõtjat
harilikult
mole
vahemaa
liikluses
mõttesse
##poja
vaimude
vaimses
soovitu
##eerija
hulgan
ilmsiks
##päevane
tunnetad
taasel
ungari
tegelast
seisnes
surema
piimat
tegurid
kristlike
jälj
eludest
augud
aukar
marimetsa
koduks
väärilised
##vaator
tulijad
rakett
pääle
mitmele
tehnoloogiline
vaataks
ristilt
koolimajas
siseministeeriumi
nippe
kaitsevõime
arendatud
kasvata
kasvatanud
autodega
õppea
lõputult
juhatuses
nimeru
pakkujate
##htudest
murumägi
ümbert
stal
õigeaeg
tähts
loomus
kirikuse
kutsuma
##ikogu
ebaol
õnnes
õnnistada
lapsehoid
124
peremehe
torust
arvestatava
koostis
mõistmiseks
tegemiste
tegemistest
minemas
kannatas
paaris
seadmega
sobima
sobivam
ühtlaselt
koostöövõrgust
algav
hell
tootlikus
jalutama
covena
abilisi
rahvarohke
pidutse
võistlusi
viljad
tekitades
lähim
püüad
sotsiaalmaja
ostjate
##ussektori
register
registris
toetajad
väiksemas
laskus
try
trikk
trikke
hüve
õpetajaga
infoga
filmid
filharm
salmon
piirab
hoonest
178
kvalita
kõrvaldada
##kkima
külastab
külastavad
##andur
laadal
##võimeline
vähenemist
käskis
astmeline
süüda
##üksuse
sammuga
linnavalitsusel
valmistamisel
vigastuse
investeeritud
positiivseks
odavad
lahendatakse
ühendriikide
tollane
##raskust
vanusest
loodussõbral
killast
räpina
esinema
küsitav
mürgi
viskab
mõjutas
töökorral
koormat
seletust
plaanin
mustrit
kirjeldatakse
meetmest
olulisema
vabu
koerakro
treeneri
küündi
küüsla
ohtude
nimelist
märkimist
nõudnud
jäädavalt
koduses
väljaspoolt
ainuõige
naase
hinnangud
unenägudes
kontrollivad
##korrad
##kursuse
armunud
väärtuslikuks
kauplustes
profile
pimedust
kuulevad
##õpetajate
##õigusega
##õigusse
saatmist
solution
argumendi
ahhaa
haridusosakonna
pöördun
vormist
teenija
laulupidu
ajaloolane
uskudes
oskustega
julgeb
muljetaval
punktide
muutumises
sõlminud
atv
selgusele
jõuluks
annetuse
annetatud
##com
puutöö
##maailmast
pink
taheti
püsivalt
##tegevust
potentsiaaliga
viiekümne
mõõtmised
edaspidigi
plaanivad
treenida
iseloomustavad
tiivad
tantsup
reisijaid
sümboleid
ehitusega
usaldama
tabelid
tabelist
naeratades
täpsust
meestest
##kalli
köög
kasumlik
ainet
vestelda
toitumise
kaevanda
kaevandamise
lähtutakse
jälgitakse
allikaid
usaldusväärne
##nsch
estpak
paberid
1985
osutuvad
tõmbama
ajendas
tervendav
kohvikus
paikneb
unest
paigutatakse
kategooriad
kategooriate
narvas
rikkad
abiell
trepist
teatris
planeering
egoist
taotlusvoor
väljatöötatud
factory
varesed
seljata
eetiline
teenindaja
regulatsioone
regulatsioonide
põllumajandust
mõnelgi
teavitama
abielupaar
keskkoolis
juriidiliselt
juriidiliste
läbiviimisel
##server
tekkivad
kodukandi
tööriist
meetodit
vastuvõtmise
meeldida
rohukülas
installeerimist
kvaliteedile
pakkida
mainet
lumel
häirima
identifitseer
situatsiooni
situatsioonis
##vahea
turgudele
aegunud
iraagis
põrandale
operaatorid
arvestus
cram
sujub
aktiviseer
##süsteemide
seisundit
miinused
arveldus
seisukohtade
spetsiifilise
suvine
starti
võlaõigusse
maksumuse
sätestab
majandusteaduses
domineerivad
hooldaja
moodulite
fotol
seonduvat
õigustatult
installitud
pereliikmed
erandiks
##hinge
murdnud
##puhkust
slaid
trennis
inseneri
##rühmas
stux
distantsi
leader
hiinlased
##elanikud
seemneid
protseduuride
vahtras
kõhkles
##reiside
deemon
##ohtlik
jüngrid
retsept
paragrahv
pumpa
##kohustus
##pinnal
reeglitega
filatel
suhelnud
wp7
altarise
üldkoosoleku
baseerub
advokaadi
tuuleparkide
peksari
platsile
elustiil
##kontroll
majanduslanguse
entusias
raisata
kiirlaenude
igor
liiklusõnnetuses
otepääl
noormeest
##härra
bulgaa
jutuajamine
majandusteaduse
ravikindlustuse
kuuskemaa
tagasilöö
eestirootslaste
laurentius
müsteerium
##iturundus
sundüürnike
heebrea
haiht
manifest
evelin
peterburis
jõupingut
##volikogus
tammaru
economics
humoor
rudolf
alfred
sümf
reovee
##putäis
pragmaat
eisensch
vingugaasi
näidiskor
kandidatuuri
jüristo
abstrak
lorenzson
silmnähta
aht
aeti
boo
bind
bib
cnn
ctp
dot
epis
eco
giid
jona
kik
kkalli
lö
laar
nuta
naasta
osi
ria
shi
t6
tras
wall
yldse
zu
##ura
##til
##kna
##kini
##kree
##kesse
##sky
##msi
##pselt
##puri
##positsiooni
##iini
##rinna
##lla
##lustamine
##ümmend
##boks
##basid
##ökonoom
##14
##can
##90
##élit
##stid
##alituse
##majale
##dasid
##tees
##tevahel
##ooda
##oovi
jabur
##vaal
katsu
kammer
##ulan
kov
koguse
##naš
võsast
##urs
tais
takka
##ndina
##utustest
##guvad
maju
väed
##ean
##hakka
##metes
##korv
##kott
sah
sach
saue
sank
sie
paus
pagas
laid
lais
laos
are
arste
##kaud
##kanna
##utar
kõve
kõiv
##ings
##valdus
##saja
täistaot
omama
kasside
ratif
##tungi
valutult
##jumal
##rov
mune
aldo
teek
##biini
tõuga
töövahend
töövilja
suurlinna
leba
leon
puhu
teatavat
produtse
##mistes
##isaali
võimsalt
ülekande
##reas
##viid
##vivad
vedu
inimel
võimalusega
võimaluseks
luc
lunast
milleta
erksa
põhia
põhilise
põhikiri
##iad
reas
osaga
multi
##misvõime
küljed
andja
andrea
peos
jäädi
nõme
nõustus
nõustamise
nõunik
##unel
##gelda
kollast
prax
uuenenud
hooaega
ajasid
homo
alaväär
otsusest
otsiti
oskuse
tarne
turtsa
elamiseks
lisavad
load
hävis
##arhite
##ingutest
kuulsus
kuulutuse
kuulutanud
sola
keskmes
keskvalitsuse
küsid
nüüdisa
##hendus
lähema
##entor
toiming
toimiks
parool
parooli
siinsamas
koosnes
jook
##kassasse
##matule
maksva
##kümnes
sillaste
järgnesid
seavad
varuda
kulutanud
täiust
võimalikul
hallid
##very
##verest
##usada
tip
põhjusena
##erima
avaldusi
##olekuga
ilmumise
tunnetab
millisest
millistest
seonduvad
sõnasta
sõnavõ
sõnadest
meelsasti
sisseehitatud
vanasõna
tegelikust
kiirustada
surid
nomin
nobeli
##ilaste
rõdus
abivalmis
kristina
kristlikus
kaasabil
ident
##kisse
teket
##muus
jäljed
elmar
margin
markide
aegsasti
kohalikust
ilmale
##ulaua
pealinnas
mitmetest
mitmekord
erastamise
tükid
nooruse
uuritakse
ristiti
##roll
koolita
nihe
lahendustega
##programmist
kasvatama
kommi
pakkuva
peenike
poolsaare
päevakorras
##isuur
jagamist
piirduda
majanduslikud
majanduslike
majandussur
mänguks
plaate
kujunduse
##jutud
elemendi
päikse
mõistmise
tegemistes
kuno
paarist
lahka
lahutada
soovitaksin
##vahelise
sobivate
usute
teleka
algatada
kustutatud
helisema
loeti
kaotati
huvigruppide
nädalaid
tahtel
lepituse
meriloo
edukuse
edukat
##tõhus
##käeliselt
määrav
määravaks
paade
hindamiseks
kirjaga
mõõte
ööpäevas
akend
nooruk
võistlema
projektidele
ühtekokku
läheneb
mäletavad
juhitav
proovitud
armastage
rakendusega
rakendustele
hül
hülga
##juhtum
läbil
läbimise
läbimur
värs
hoonele
võrdlused
reaalsusega
omavalitsusele
##risti
moodne
moodustatud
##õpra
##cket
laastu
ulatas
algusesse
loobumist
väärtustada
bush
sadas
vähki
jätkuv
usast
käsikäes
testitud
senti
seniste
tühim
kuulajate
linnus
registreeru
looduskaits
nõusolek
asuvast
otsustad
##tistika
tervisejuhi
päästjate
päästeameti
valgete
##punktide
##hoidla
sisaldas
moodus
müts
loomakaitse
raskuste
seleta
seletan
paigaldati
detsent
töötajaga
##cache
lahkunu
reklaame
lennukit
muusikaõpetaja
treeni
privile
detsembriks
instru
katset
leebe
arvutused
tunnistamise
tunnistajaks
jätkavad
blogs
jälgimise
märkmeid
##aliseerimine
pildiki
tõdemus
liitrit
portsu
hoolivad
esilehel
##kursus
tõstes
mainin
pöörab
versioonist
artiklitest
punaseks
##õigul
##õigusi
lemuur
teistelegi
kommentaaris
tsiteeri
löövad
funktsioonid
võidule
kajastatud
valitsev
igavesse
pärnumaa
teadusuuringute
skp
reiside
muutuvas
turvalisem
poisile
traditsioonide
indigo
selgituseks
oktoobrist
õlga
säilitamise
leppiku
tellinud
puutuvad
populaarsus
##tähta
tellib
traktor
korrela
korduma
tabatud
tabeleid
tantsur
puhkusele
##parte
nutsin
väljundit
poolajaks
##bussi
maripuu
vaevab
rääkimise
tasanditel
tabelit
koostanud
käivitab
kujundanud
konfes
rakendama
uurimused
suurendas
kommenteerides
etappi
kopeerida
alternatiivid
mõnikümmend
tasakaalusta
##protsent
1937
vestlust
vestluse
diakon
olemasolevad
jälgivad
sunnil
kolmandikku
dollar
vastuseis
vastuseta
erialale
allkirjaga
allkirjade
allkirjastatud
staaž
elektrienergia
##asutustele
salvestab
tõelised
tervendamine
tarbimist
lahtine
rikkuse
tõmbasid
ühendav
reageeris
##koond
paksus
mäletad
wana
##ismiga
bern
berliin
vastuvõtule
täiuslikku
teatrik
kraami
ajaloolist
veidra
stseen
tudengeid
asjalikku
facio
organismile
ohvreid
mehena
##ülesande
regulatiiv
optimeerimise
vastavuses
kümnise
pooleldi
elion
elioni
teooriat
linnuke
maailmavaatega
tollel
active
tööriide
seestpoolt
##oskuste
kirjutisi
juhtimisõiguse
ebaõnnestu
##kogudus
sõbralikud
protseduure
värav
individuaalse
individuaalselt
ajades
suundus
katkend
armukade
eksistentsi
pärale
kontole
häirivad
sõjavägi
laiendamine
partnerit
järgneval
vikerkaar
hilisemad
tulemuseni
kahanenud
arvestust
##peedia
staadionil
seisundisse
sisenemise
absoluutne
arutasid
staatiline
võrkpalli
##eelarvest
rõõmsaks
üürida
kütuseele
anonüümne
missugused
kodulehekülg
essees
##võitluse
##paraat
põhjalikumat
rõõmusõn
tõestas
püstitati
##ttevõtetes
digital
finaalla
##nurme
kõlbab
kõndisin
asjaolude
daam
##hõl
institutsioonid
normide
põhiturniiril
pensionäride
olemusega
läbimõtle
##algatuse
danilovi
looduskaitseala
metat
kombinatsiooni
imestama
aprillini
kolima
ikoonid
asjatundjad
oskustea
mitmekülgse
objektiivselt
lõhkuda
effe
immigratsiooni
suurenevad
##pühitse
kantsele
hambaarst
monitori
tòò
olümpi
rippnimist
delegatsiooni
image
poolajavile
kahetseda
männiku
isiksuse
puudujääk
väärtushinnangud
hommikuti
vundamendi
raiskamine
leedust
defitsiit
osapoolte
lemmikloomade
suurbritannias
õppereisi
puhvri
kohusetund
heakskiidu
##käigud
nõuandja
vandenõ
androidi
hinnaline
transaktsioon
##tarbimine
katkestas
gallery
burnaš
selletaol
kloostri
väsimus
otsingutule
orbiidile
kammerkoori
rikub
südametunnistuse
algernoni
publikut
intuitiiv
resultatiivseim
triobet
egiptuses
ndatel
papago
elektriauto
fundamenta
elurõõ
riigihangete
algupära
##põhimõte
##meditsiini
peltor
gotlandi
alampalk
olulisim
powerpoint
inkubaator
tàiesti
mastaabis
riskantse
eksempla
ippolit
ekspordirevolutsiooni
multifunk
ülestõusmispüha
uchtdorf
reaalel
egiptuse
peipsi
pretsed
eowélit
molekul
hulganisti
ateist
aunime
coo
cent
catch
dn
ff
gua
jò
jööri
ks
mustas
mall
ng
neer
nuga
rö
renti
tw
tha
time
uis
ulu
wif
õel
õlu
ùle
##nisti
##tre
##hr
##hur
##kusega
##kalda
##sl
##sf
##situd
##musele
##oas
##osti
##pensi
##pikkune
##ialt
##rikk
##dumine
##dumisi
##vusi
##lustamise
##gh
##giline
##gali
##gudega
##buse
##bita
##word
##fot
##fitseeri
##83
##93
##sekretäri
##aluseid
##inur
##invest
##tegija
jaos
##vank
kapo
kamina
kairi
##eemal
##imul
tehtu
##itide
##itustest
##ily
##istesse
kokkus
##nahk
##namul
##esine
##rac
vajate
##laine
##uro
##utuks
##ask
##asutust
selver
##guga
##gument
mard
majon
maises
mardil
maratoni
väest
##east
oldud
tunamul
oleta
##erg
##kohus
juuks
saaki
saaste
sile
pahe
pahu
lakke
lambid
artio
intiim
##kannet
megan
mehaan
kõi
##samad
##sarja
täppi
##äärad
raigo
valikus
valutab
küp
kümmet
##endusega
lippu
tulemast
tuleksid
aaret
läk
##ikumise
haz
haes
##bivad
tööaeg
töövõime
töövoo
suurfirmad
korjas
koristada
väliselt
teatav
provider
loojaga
##jalan
võimlemis
ülemäära
ülekäigu
##paus
##pandud
aastale
aastaste
##olude
kõikjalt
soosi
##ikauba
##eeriks
##eeritus
##eeruvad
lumet
väljak
väljakuju
erk
erinä
süles
poode
##stein
kohelda
##ttega
konsta
vastutavad
ühinenud
tegevad
viieks
viiruse
tagamine
sisustuse
andeid
pex
pesen
mittevasta
vic
tänatud
vaadet
##ters
alale
otsinguid
osutama
tarkade
##ühistu
kogunesid
kindlas
elatist
##egade
näitega
inimesteni
kuuluma
keskust
kingib
juhtme
juhtkiri
pres
##mpro
kaasnenud
euros
koosolekut
kalleid
##kasse
##aarva
##umiini
saadaks
autole
üldisest
üldkonverentsi
vastaks
vastavust
silt
silva
sildi
karel
sinised
pilgud
kulutavad
kivis
abort
##usaal
ettevõtjatega
vahetas
vahetanud
vahetatakse
nimetust
nimekirjad
mõttetera
##pod
vaimsust
soovidega
soovunel
kirikuks
tunnine
jätmise
puudumist
käivet
vanale
mõtelda
mõtlikult
taass
unustasin
müür
##valitsus
paralep
hinnanud
hinnati
leidke
##ilased
rõude
tallinnale
elud
marki
maailmakuul
kinnitama
sellisega
kodukoha
allahind
allkirju
vääriliselt
suhtuma
kohalolu
ehitamisest
külade
kurjust
pühakoja
pühavaimu
meeskondade
##reener
mitmeks
eramu
erastamine
riiklikku
tülika
nooruses
tehnoloogiliste
tugevust
sisestamise
arendanud
isade
lasteks
##umaalt
pakkujad
siiri
siirast
korrad
155
##teerimine
kontrast
peetav
kogudusega
kogudusest
eesmärg
ümberkorralda
street
päevase
päevane
reak
kiriklik
kogemusele
##tustes
##oloogiat
##ikokku
laiendab
ebavajal
mõnedel
õnnit
kolmnur
tornik
defa
nelli
kujunevad
kujunema
elevust
katusele
heads
##aadressi
heie
meelepärane
ametikohta
seadmine
töödest
üliko
raamatuga
raamatukogud
usuõpetus
verba
rahuldab
rahuldust
heliko
tootjaid
kaotasid
eric
112
poliitikast
poliitilisest
##alistliku
##reerimine
merd
õhtust
määranud
määravad
valges
paav
hindamatu
kirjastus
kirjanike
kirjavahe
massid
mõõna
haigusest
rahvakultuuri
rahvahääle
võistkonnad
muudatustest
hoiakud
tõsiste
##riie
säh
juhind
puhastatud
armastades
lasub
laskis
##võtmine
palvetan
##jäämine
piiramatu
144
omavalitsustel
##aastatel
autoreid
avaldame
kavandada
külastama
tooteval
mõjuga
hingeline
jope
serveerida
segaduse
kinnisasja
valede
sadanud
käibest
arusaamu
jätkuvat
europe
võõrt
##roofia
käsutusse
testidega
ideedega
teedeeh
süütunne
tüüpil
##pildis
mugavuse
##varustust
politseil
kinnisvarateh
##mänge
vähendatud
kaane
õpetame
värviline
registreerimiseks
vigastatud
sõidukid
lahendanud
##uguseid
tõlkes
vallavanemat
hiv
laetakse
##sõl
##sõnu
##sõnal
täiendab
klientidel
esinev
esinejad
##ilisteks
võimaldama
moore
mürk
##võtted
##koolides
konkreetsele
konkreetsemalt
konkreetsetele
taotlemisel
taotlejale
põhjanaab
##tüki
madalamat
kinnituse
kunstlik
kunstikooli
töötajatel
üsnagi
terraa
organisatsioone
metsade
ohtlike
osalised
sõitmine
tarbijaid
pahanda
pahameelt
jälgimiseks
pöörde
märkused
kandidaad
minutiks
martnast
toimuvate
hoolib
rannani
esilehe
armastuseta
kontakteer
##kurör
240
##ksteist
kehtiva
väärtusliku
kauple
##ormatsioon
kalapüü
kummalist
serverist
ettepanekuga
aastasa
liigutab
matk
tähistavad
kuuled
installe
arendusjuht
joont
tsiteerida
balteco
pöörduvad
parandati
teadusliku
tutvustanud
piletid
külgetõmbe
huskyt
kehvasti
kehtestamise
kõrgharidus
kõrghariduse
languse
langesid
mõisted
mõistetavaks
indust
indon
aspx
sääl
##kaartide
eelarvekär
arveid
270
plaaniga
muudeti
##tehnoloogiate
puhkudel
pärnust
##ministeeriumis
suhtlevad
protsessori
rünnakul
rünnakut
rünnakud
kallima
kallite
kingituseks
komitee
käivitamine
käivitamiseks
konfid
uurimusi
compa
kasvuhoone
loogikat
perekonnaseis
1945
keerukamate
muidki
kaitsmiseks
riigikohtu
lasteaiad
1931
tshe
lahkusid
##kollane
veebilehele
tõlgendus
kummalisel
tõrge
erialast
1984
communi
päästeosakonna
##simus
tõmbad
##venes
skaud
ajendeid
arenev
kodulehele
kahjud
ühiskondlik
ühiskondliku
ühiskondlike
algusaega
peegeldub
tajun
koondamine
lehtedel
tuulikud
impul
intrig
sulgemine
stabiilse
mäletagi
sügavamat
seisukohale
rikkaks
sunnivad
renoveerimiseks
dimsa
teatrit
ujuv
külastusi
##gevusest
kraavi
kanep
käitumisega
kiiver
1925
ajateenistust
karmavõ
muretses
omavalitsusliit
kanaleid
tihedamalt
metallist
väljatöötamiseks
organismis
holm
biotehnoloogiasektori
viidanud
pinges
##nimega
##mendile
lähiümb
liinile
##haiguste
piiblil
materiaalset
ettevaatlikud
kokkulepete
hauaplaa
katuselt
##redalt
sooviksid
##serveri
varjupaika
austraali
pühenduda
simuna
peategela
koordinaadid
kontsertkoori
hiiumaal
aiast
meetodil
vastuvõtmine
kirjutis
vähenevad
##bility
installeerimine
esemed
conf
650
kummardus
kapsa
sümboliseerib
põhimõtetest
astusid
koondise
märkimisväärset
digitaalne
reguleerib
laiendamise
väärtustest
düs
garde
gardie
devalveerimist
hävinud
staadiumis
osutamise
vastupidavust
##festivalil
##prakt
palavik
hinnangute
tuvastamine
tuvastamise
taastati
külastasid
raamatupidaja
täidetakse
mingisuguse
edendamise
majandusteadlaste
tsentraal
etendust
messidel
type
pooldajad
ehitustööd
autosse
hispaanias
sertifikaat
likviid
vaevunud
rendile
haigestumine
särgi
[...]
